{
  "version": "1.0",
  "truncation": null,
  "padding": null,
  "added_tokens": [
    {
      "id": 0,
      "content": "[UNK]",
      "single_word": false,
      "lstrip": false,
      "rstrip": false,
      "normalized": false,
      "special": true
    },
    {
      "id": 1,
      "content": "[PAD]",
      "single_word": false,
      "lstrip": false,
      "rstrip": false,
      "normalized": false,
      "special": true
    },
    {
      "id": 2,
      "content": "[BOS]",
      "single_word": false,
      "lstrip": false,
      "rstrip": false,
      "normalized": false,
      "special": true
    },
    {
      "id": 3,
      "content": "[EOS]",
      "single_word": false,
      "lstrip": false,
      "rstrip": false,
      "normalized": false,
      "special": true
    }
  ],
  "normalizer": null,
  "pre_tokenizer": {
    "type": "Whitespace"
  },
  "post_processor": null,
  "decoder": {
    "type": "BPEDecoder",
    "suffix": "</w>"
  },
  "model": {
    "type": "BPE",
    "dropout": null,
    "unk_token": "[UNK]",
    "continuing_subword_prefix": null,
    "end_of_word_suffix": "</w>",
    "fuse_unk": false,
    "byte_fallback": false,
    "ignore_merges": false,
    "vocab": {
      "[UNK]": 0,
      "[PAD]": 1,
      "[BOS]": 2,
      "[EOS]": 3,
      "\u0014": 4,
      "\u001b": 5,
      "!": 6,
      "\"": 7,
      "#": 8,
      "$": 9,
      "%": 10,
      "&": 11,
      "'": 12,
      "(": 13,
      ")": 14,
      "*": 15,
      "+": 16,
      ",": 17,
      "-": 18,
      ".": 19,
      "/": 20,
      "0": 21,
      "1": 22,
      "2": 23,
      "3": 24,
      "4": 25,
      "5": 26,
      "6": 27,
      "7": 28,
      "8": 29,
      "9": 30,
      ":": 31,
      ";": 32,
      "<": 33,
      "=": 34,
      ">": 35,
      "?": 36,
      "@": 37,
      "A": 38,
      "B": 39,
      "C": 40,
      "D": 41,
      "E": 42,
      "F": 43,
      "G": 44,
      "H": 45,
      "I": 46,
      "J": 47,
      "K": 48,
      "L": 49,
      "M": 50,
      "N": 51,
      "O": 52,
      "P": 53,
      "Q": 54,
      "R": 55,
      "S": 56,
      "T": 57,
      "U": 58,
      "V": 59,
      "W": 60,
      "X": 61,
      "Y": 62,
      "Z": 63,
      "[": 64,
      "\\": 65,
      "]": 66,
      "^": 67,
      "_": 68,
      "`": 69,
      "a": 70,
      "b": 71,
      "c": 72,
      "d": 73,
      "e": 74,
      "f": 75,
      "g": 76,
      "h": 77,
      "i": 78,
      "j": 79,
      "k": 80,
      "l": 81,
      "m": 82,
      "n": 83,
      "o": 84,
      "p": 85,
      "q": 86,
      "r": 87,
      "s": 88,
      "t": 89,
      "u": 90,
      "v": 91,
      "w": 92,
      "x": 93,
      "y": 94,
      "z": 95,
      "{": 96,
      "|": 97,
      "}": 98,
      "~": 99,
      "": 100,
      "": 101,
      "": 102,
      "": 103,
      "": 104,
      "": 105,
      "": 106,
      "": 107,
      "": 108,
      "": 109,
      "": 110,
      "": 111,
      "": 112,
      "": 113,
      "": 114,
      "": 115,
      "": 116,
      "": 117,
      "": 118,
      "": 119,
      "": 120,
      "": 121,
      "": 122,
      "": 123,
      "": 124,
      "": 125,
      "": 126,
      "": 127,
      "": 128,
      "": 129,
      "¡": 130,
      "¢": 131,
      "£": 132,
      "¤": 133,
      "¥": 134,
      "¦": 135,
      "§": 136,
      "¨": 137,
      "©": 138,
      "ª": 139,
      "«": 140,
      "¬": 141,
      "­": 142,
      "®": 143,
      "¯": 144,
      "°": 145,
      "±": 146,
      "²": 147,
      "³": 148,
      "´": 149,
      "µ": 150,
      "¶": 151,
      "·": 152,
      "¸": 153,
      "¹": 154,
      "º": 155,
      "»": 156,
      "¼": 157,
      "½": 158,
      "¾": 159,
      "¿": 160,
      "À": 161,
      "Á": 162,
      "Â": 163,
      "Ã": 164,
      "Ä": 165,
      "Å": 166,
      "Æ": 167,
      "Ç": 168,
      "É": 169,
      "Ê": 170,
      "Í": 171,
      "Î": 172,
      "Ð": 173,
      "Ñ": 174,
      "Ó": 175,
      "Ô": 176,
      "Õ": 177,
      "Ö": 178,
      "×": 179,
      "Ø": 180,
      "Ú": 181,
      "Û": 182,
      "Ü": 183,
      "ß": 184,
      "à": 185,
      "á": 186,
      "â": 187,
      "ã": 188,
      "ä": 189,
      "å": 190,
      "æ": 191,
      "ç": 192,
      "è": 193,
      "é": 194,
      "ê": 195,
      "ë": 196,
      "ì": 197,
      "í": 198,
      "î": 199,
      "ï": 200,
      "ð": 201,
      "ñ": 202,
      "ò": 203,
      "ó": 204,
      "ô": 205,
      "õ": 206,
      "ö": 207,
      "÷": 208,
      "ø": 209,
      "ù": 210,
      "ú": 211,
      "ü": 212,
      "ý": 213,
      "þ": 214,
      "Ā": 215,
      "ā": 216,
      "Ă": 217,
      "ă": 218,
      "Ą": 219,
      "ą": 220,
      "Ć": 221,
      "ć": 222,
      "Č": 223,
      "č": 224,
      "ď": 225,
      "Đ": 226,
      "ē": 227,
      "ė": 228,
      "Ę": 229,
      "ę": 230,
      "Ě": 231,
      "ě": 232,
      "ğ": 233,
      "ģ": 234,
      "ī": 235,
      "ĭ": 236,
      "İ": 237,
      "ı": 238,
      "Ĺ": 239,
      "ĺ": 240,
      "ļ": 241,
      "Ľ": 242,
      "ľ": 243,
      "Ł": 244,
      "ł": 245,
      "ń": 246,
      "Ň": 247,
      "ň": 248,
      "Ō": 249,
      "ō": 250,
      "ŏ": 251,
      "ő": 252,
      "œ": 253,
      "ŕ": 254,
      "Ř": 255,
      "ř": 256,
      "Ś": 257,
      "ś": 258,
      "Ş": 259,
      "ş": 260,
      "Š": 261,
      "š": 262,
      "Ţ": 263,
      "ţ": 264,
      "Ť": 265,
      "ť": 266,
      "ū": 267,
      "ŭ": 268,
      "ů": 269,
      "ű": 270,
      "ų": 271,
      "ź": 272,
      "Ż": 273,
      "ż": 274,
      "Ž": 275,
      "ž": 276,
      "ơ": 277,
      "ư": 278,
      "ǁ": 279,
      "ǆ": 280,
      "ș": 281,
      "ț": 282,
      "ɓ": 283,
      "ə": 284,
      "ɪ": 285,
      "ʼ": 286,
      "ʿ": 287,
      "ˇ": 288,
      "ː": 289,
      "˘": 290,
      "˙": 291,
      "˚": 292,
      "˛": 293,
      "˜": 294,
      "˝": 295,
      "̀": 296,
      "́": 297,
      "̃": 298,
      "̄": 299,
      "̈": 300,
      "̊": 301,
      "̧": 302,
      "̪": 303,
      "ͧ": 304,
      ";": 305,
      "Β": 306,
      "Δ": 307,
      "Θ": 308,
      "Κ": 309,
      "Λ": 310,
      "Μ": 311,
      "Π": 312,
      "Ω": 313,
      "ί": 314,
      "α": 315,
      "β": 316,
      "γ": 317,
      "ε": 318,
      "ζ": 319,
      "η": 320,
      "θ": 321,
      "ι": 322,
      "κ": 323,
      "λ": 324,
      "μ": 325,
      "ν": 326,
      "ο": 327,
      "π": 328,
      "ρ": 329,
      "σ": 330,
      "τ": 331,
      "φ": 332,
      "ψ": 333,
      "ω": 334,
      "ό": 335,
      "ώ": 336,
      "Ѕ": 337,
      "А": 338,
      "Д": 339,
      "С": 340,
      "Т": 341,
      "У": 342,
      "Ч": 343,
      "а": 344,
      "в": 345,
      "д": 346,
      "е": 347,
      "ж": 348,
      "и": 349,
      "й": 350,
      "н": 351,
      "о": 352,
      "п": 353,
      "р": 354,
      "ю": 355,
      "є": 356,
      "Ү": 357,
      "֠": 358,
      "֦": 359,
      "ֹ": 360,
      "׃": 361,
      "،": 362,
      "آ": 363,
      "أ": 364,
      "إ": 365,
      "ا": 366,
      "ة": 367,
      "ت": 368,
      "ج": 369,
      "ح": 370,
      "د": 371,
      "ر": 372,
      "س": 373,
      "ق": 374,
      "ك": 375,
      "ل": 376,
      "م": 377,
      "ن": 378,
      "و": 379,
      "ي": 380,
      "ٓ": 381,
      "ٕ": 382,
      "ی": 383,
      "ँ": 384,
      "ं": 385,
      "ः": 386,
      "अ": 387,
      "आ": 388,
      "इ": 389,
      "ई": 390,
      "उ": 391,
      "ऊ": 392,
      "ऋ": 393,
      "ऌ": 394,
      "ऍ": 395,
      "ऎ": 396,
      "ए": 397,
      "ऐ": 398,
      "ऑ": 399,
      "ऒ": 400,
      "ओ": 401,
      "औ": 402,
      "क": 403,
      "ख": 404,
      "ग": 405,
      "घ": 406,
      "ङ": 407,
      "च": 408,
      "छ": 409,
      "ज": 410,
      "झ": 411,
      "ञ": 412,
      "ट": 413,
      "ठ": 414,
      "ड": 415,
      "ढ": 416,
      "ण": 417,
      "त": 418,
      "थ": 419,
      "द": 420,
      "ध": 421,
      "न": 422,
      "ऩ": 423,
      "प": 424,
      "फ": 425,
      "ब": 426,
      "भ": 427,
      "म": 428,
      "य": 429,
      "र": 430,
      "ऱ": 431,
      "ल": 432,
      "ळ": 433,
      "ऴ": 434,
      "व": 435,
      "श": 436,
      "ष": 437,
      "स": 438,
      "ह": 439,
      "़": 440,
      "ऽ": 441,
      "ा": 442,
      "ि": 443,
      "ी": 444,
      "ु": 445,
      "ू": 446,
      "ृ": 447,
      "ॄ": 448,
      "ॅ": 449,
      "ॆ": 450,
      "े": 451,
      "ै": 452,
      "ॉ": 453,
      "ॊ": 454,
      "ो": 455,
      "ौ": 456,
      "्": 457,
      "ॐ": 458,
      "॑": 459,
      "॒": 460,
      "॓": 461,
      "॔": 462,
      "क़": 463,
      "ख़": 464,
      "ग़": 465,
      "ज़": 466,
      "ड़": 467,
      "ढ़": 468,
      "फ़": 469,
      "य़": 470,
      "ॠ": 471,
      "ॡ": 472,
      "ॣ": 473,
      "।": 474,
      "॥": 475,
      "०": 476,
      "१": 477,
      "२": 478,
      "३": 479,
      "४": 480,
      "५": 481,
      "६": 482,
      "७": 483,
      "८": 484,
      "९": 485,
      "॰": 486,
      "ক": 487,
      "চ": 488,
      "ঠ": 489,
      "থ": 490,
      "দ": 491,
      "ন": 492,
      "ব": 493,
      "ভ": 494,
      "র": 495,
      "ষ": 496,
      "স": 497,
      "া": 498,
      "ী": 499,
      "ু": 500,
      "্": 501,
      "ਦ": 502,
      "ਲ": 503,
      "ਿ": 504,
      "ੀ": 505,
      "ੱ": 506,
      "પ": 507,
      "બ": 508,
      "ા": 509,
      "ુ": 510,
      "ḍ": 511,
      "ḥ": 512,
      "ḷ": 513,
      "ṁ": 514,
      "ṃ": 515,
      "ṅ": 516,
      "ṇ": 517,
      "Ṛ": 518,
      "ṛ": 519,
      "ṣ": 520,
      "ṭ": 521,
      "ẻ": 522,
      "ờ": 523,
      "ủ": 524,
      "​": 525,
      "‌": 526,
      "‍": 527,
      "‎": 528,
      "‏": 529,
      "‐": 530,
      "‑": 531,
      "–": 532,
      "—": 533,
      "―": 534,
      "‘": 535,
      "’": 536,
      "‚": 537,
      "“": 538,
      "”": 539,
      "„": 540,
      "†": 541,
      "‡": 542,
      "•": 543,
      "…": 544,
      "‰": 545,
      "′": 546,
      "⁰": 547,
      "⁴": 548,
      "⁵": 549,
      "⁶": 550,
      "⁷": 551,
      "⁻": 552,
      "₀": 553,
      "₁": 554,
      "₂": 555,
      "€": 556,
      "₹": 557,
      "™": 558,
      "⅓": 559,
      "⅔": 560,
      "⅕": 561,
      "⅖": 562,
      "⅗": 563,
      "⅘": 564,
      "⅙": 565,
      "←": 566,
      "→": 567,
      "⇒": 568,
      "∂": 569,
      "−": 570,
      "∕": 571,
      "√": 572,
      "∞": 573,
      "∣": 574,
      "∨": 575,
      "∶": 576,
      "≠": 577,
      "≤": 578,
      "≥": 579,
      "⋯": 580,
      "⌈": 581,
      "⌉": 582,
      "⌊": 583,
      "⌋": 584,
      "⌘": 585,
      "⏎": 586,
      "─": 587,
      "═": 588,
      "■": 589,
      "☺": 590,
      "☻": 591,
      "♪": 592,
      "♫": 593,
      "➣": 594,
      "か": 595,
      "な": 596,
      "不": 597,
      "中": 598,
      "付": 599,
      "傭": 600,
      "國": 601,
      "堀": 602,
      "妖": 603,
      "字": 604,
      "容": 605,
      "庸": 606,
      "悠": 607,
      "憂": 608,
      "揺": 609,
      "擁": 610,
      "曜": 611,
      "有": 612,
      "様": 613,
      "洋": 614,
      "溶": 615,
      "漢": 616,
      "熔": 617,
      "用": 618,
      "由": 619,
      "病": 620,
      "秦": 621,
      "続": 622,
      "羊": 623,
      "耀": 624,
      "葉": 625,
      "要": 626,
      "謡": 627,
      "设": 628,
      "遥": 629,
      "預": 630,
      "째": 631,
      "": 632,
      "": 633,
      "": 634,
      "": 635,
      "": 636,
      "": 637,
      "ﬁ": 638,
      "ﬂ": 639,
      "﻿": 640,
      "￼": 641,
      "�": 642,
      "ण</w>": 643,
      "ा</w>": 644,
      "ग</w>": 645,
      "ी</w>": 646,
      "d</w>": 647,
      "n</w>": 648,
      "a</w>": 649,
      "स</w>": 650,
      "म</w>": 651,
      "क</w>": 652,
      "h</w>": 653,
      "e</w>": 654,
      "i</w>": 655,
      "s</w>": 656,
      "ल</w>": 657,
      "ं</w>": 658,
      "r</w>": 659,
      "y</w>": 660,
      "घ</w>": 661,
      "ँ</w>": 662,
      "े</w>": 663,
      "o</w>": 664,
      "ः</w>": 665,
      "व</w>": 666,
      "५</w>": 667,
      "f</w>": 668,
      "न</w>": 669,
      "य</w>": 670,
      "ट</w>": 671,
      "p</w>": 672,
      "त</w>": 673,
      "ज</w>": 674,
      "5</w>": 675,
      "A</w>": 676,
      "t</w>": 677,
      "g</w>": 678,
      "m</w>": 679,
      ".</w>": 680,
      "E</w>": 681,
      "1</w>": 682,
      "ि</w>": 683,
      "?</w>": 684,
      "र</w>": 685,
      "l</w>": 686,
      "्</w>": 687,
      "ह</w>": 688,
      "ड</w>": 689,
      "w</w>": 690,
      "द</w>": 691,
      "G</w>": 692,
      "श</w>": 693,
      "ई</w>": 694,
      "c</w>": 695,
      "।</w>": 696,
      "ब</w>": 697,
      "ऊ</w>": 698,
      "ु</w>": 699,
      "प</w>": 700,
      "आ</w>": 701,
      "O</w>": 702,
      "़</w>": 703,
      "x</w>": 704,
      "थ</w>": 705,
      "3</w>": 706,
      "फ</w>": 707,
      "ठ</w>": 708,
      "ो</w>": 709,
      "7</w>": 710,
      "ू</w>": 711,
      "0</w>": 712,
      "2</w>": 713,
      "I</w>": 714,
      "k</w>": 715,
      ")</w>": 716,
      "H</w>": 717,
      "b</w>": 718,
      ";</w>": 719,
      "v</w>": 720,
      "ओ</w>": 721,
      "इ</w>": 722,
      "M</w>": 723,
      "S</w>": 724,
      "च</w>": 725,
      "ख</w>": 726,
      "X</w>": 727,
      "R</w>": 728,
      "ै</w>": 729,
      "u</w>": 730,
      "‍</w>": 731,
      "T</w>": 732,
      "ध</w>": 733,
      "D</w>": 734,
      "8</w>": 735,
      "á</w>": 736,
      "ञ</w>": 737,
      "४</w>": 738,
      "Y</w>": 739,
      "N</w>": 740,
      "ए</w>": 741,
      "j</w>": 742,
      "L</w>": 743,
      "[</w>": 744,
      "K</w>": 745,
      "B</w>": 746,
      "U</w>": 747,
      "ë</w>": 748,
      ",</w>": 749,
      "!</w>": 750,
      "4</w>": 751,
      "�</w>": 752,
      "F</w>": 753,
      "ष</w>": 754,
      "C</w>": 755,
      "6</w>": 756,
      "ङ</w>": 757,
      "*</w>": 758,
      "भ</w>": 759,
      "(</w>": 760,
      "W</w>": 761,
      "9</w>": 762,
      "V</w>": 763,
      "ऋ</w>": 764,
      "ृ</w>": 765,
      "}</w>": 766,
      "P</w>": 767,
      "७</w>": 768,
      "६</w>": 769,
      "׃</w>": 770,
      "उ</w>": 771,
      "J</w>": 772,
      "z</w>": 773,
      "०</w>": 774,
      "ज़</w>": 775,
      "झ</w>": 776,
      "ॉ</w>": 777,
      "३</w>": 778,
      "१</w>": 779,
      "८</w>": 780,
      "२</w>": 781,
      "छ</w>": 782,
      "q</w>": 783,
      "\\</w>": 784,
      "%</w>": 785,
      "​</w>": 786,
      "९</w>": 787,
      "औ</w>": 788,
      "É</w>": 789,
      "ĭ</w>": 790,
      "'</w>": 791,
      "₀</w>": 792,
      "-</w>": 793,
      "\"</w>": 794,
      "ढ</w>": 795,
      "/</w>": 796,
      "ड़</w>": 797,
      "ऴ</w>": 798,
      "अ</w>": 799,
      "¼</w>": 800,
      "ē</w>": 801,
      "ऐ</w>": 802,
      "]</w>": 803,
      "|</w>": 804,
      "ê</w>": 805,
      "”</w>": 806,
      "ढ़</w>": 807,
      "é</w>": 808,
      "ş</w>": 809,
      "³</w>": 810,
      "`</w>": 811,
      ":</w>": 812,
      "°</w>": 813,
      "¾</w>": 814,
      "“</w>": 815,
      "{</w>": 816,
      "क़</w>": 817,
      "@</w>": 818,
      "></w>": 819,
      "Z</w>": 820,
      "à</w>": 821,
      "ौ</w>": 822,
      "ć</w>": 823,
      "š</w>": 824,
      "ळ</w>": 825,
      "Q</w>": 826,
      "ऍ</w>": 827,
      "ı</w>": 828,
      "ğ</w>": 829,
      "ă</w>": 830,
      "ä</w>": 831,
      "ऎ</w>": 832,
      "ß</w>": 833,
      "+</w>": 834,
      "в</w>": 835,
      "€</w>": 836,
      "ॅ</w>": 837,
      "=</w>": 838,
      "ā</w>": 839,
      "č</w>": 840,
      "</w>": 841,
      "ţ</w>": 842,
      "è</w>": 843,
      "ŏ</w>": 844,
      "’</w>": 845,
      "</w>": 846,
      "<</w>": 847,
      "â</w>": 848,
      "ľ</w>": 849,
      "—</w>": 850,
      "ī</w>": 851,
      "í</w>": 852,
      "∨</w>": 853,
      "#</w>": 854,
      "ě</w>": 855,
      "॑</w>": 856,
      "</w>": 857,
      "ž</w>": 858,
      "फ़</w>": 859,
      "Š</w>": 860,
      "॥</w>": 861,
      "॓</w>": 862,
      "…</w>": 863,
      "Â</w>": 864,
      "Ô</w>": 865,
      "ü</w>": 866,
      "¸</w>": 867,
      "ऽ</w>": 868,
      "¤</w>": 869,
      "¨</w>": 870,
      "‘</w>": 871,
      "ॆ</w>": 872,
      "ó</w>": 873,
      "ψ</w>": 874,
      "ऑ</w>": 875,
      "µ</w>": 876,
      "ō</w>": 877,
      "~</w>": 878,
      "ż</w>": 879,
      "Ć</w>": 880,
      "º</w>": 881,
      "Ň</w>": 882,
      "॒</w>": 883,
      "ç</w>": 884,
      "ॊ</w>": 885,
      "«</w>": 886,
      "ů</w>": 887,
      "</w>": 888,
      "ŕ</w>": 889,
      "^</w>": 890,
      "Ä</w>": 891,
      "·</w>": 892,
      "$</w>": 893,
      "ú</w>": 894,
      "±</w>": 895,
      "ń</w>": 896,
      "–</w>": 897,
      "ļ</w>": 898,
      "¢</w>": 899,
      "Ã</w>": 900,
      "¥</w>": 901,
      "⅔</w>": 902,
      "☻</w>": 903,
      "¶</w>": 904,
      "</w>": 905,
      "♫</w>": 906,
      "م</w>": 907,
      "ֹ</w>": 908,
      "ł</w>": 909,
      "Ç</w>": 910,
      "&</w>": 911,
      "</w>": 912,
      "¯</w>": 913,
      "å</w>": 914,
      "ï</w>": 915,
      "æ</w>": 916,
      "ř</w>": 917,
      "Ч</w>": 918,
      "®</w>": 919,
      "Ü</w>": 920,
      "≥</w>": 921,
      "॔</w>": 922,
      "ė</w>": 923,
      "′</w>": 924,
      "̄</w>": 925,
      "Т</w>": 926,
      "⌘</w>": 927,
      "∞</w>": 928,
      "Ł</w>": 929,
      "ő</w>": 930,
      ";</w>": 931,
      "</w>": 932,
      "國</w>": 933,
      "‌</w>": 934,
      "ň</w>": 935,
      "õ</w>": 936,
      "</w>": 937,
      "ĺ</w>": 938,
      "\u001b</w>": 939,
      "ṃ</w>": 940,
      "­</w>": 941,
      "≤</w>": 942,
      "य़</w>": 943,
      "∣</w>": 944,
      "</w>": 945,
      "ˇ</w>": 946,
      "</w>": 947,
      "堀</w>": 948,
      "</w>": 949,
      "ω</w>": 950,
      "α</w>": 951,
      "Ę</w>": 952,
      "ø</w>": 953,
      "</w>": 954,
      "ώ</w>": 955,
      "¬</w>": 956,
      "а</w>": 957,
      "•</w>": 958,
      "и</w>": 959,
      "₹</w>": 960,
      "֦</w>": 961,
      "Ř</w>": 962,
      "¹</w>": 963,
      "Î</w>": 964,
      "œ</w>": 965,
      "☺</w>": 966,
      "∂</w>": 967,
      "ö</w>": 968,
      "Ā</w>": 969,
      "₁</w>": 970,
      "⅕</w>": 971,
      "ì</w>": 972,
      "˛</w>": 973,
      "ū</w>": 974,
      "−</w>": 975,
      "ḥ</w>": 976,
      "ʼ</w>": 977,
      "Π</w>": 978,
      "</w>": 979,
      "φ</w>": 980,
      "˙</w>": 981,
      "॰</w>": 982,
      "ग़</w>": 983,
      "ऒ</w>": 984,
      "‎</w>": 985,
      "÷</w>": 986,
      "⁰</w>": 987,
      "ل</w>": 988,
      "»</w>": 989,
      "═</w>": 990,
      "²</w>": 991,
      "،</w>": 992,
      "―</w>": 993,
      "</w>": 994,
      "Ó</w>": 995,
      "⌊</w>": 996,
      "˝</w>": 997,
      "Λ</w>": 998,
      "</w>": 999,
      "‚</w>": 1000,
      "ę</w>": 1001,
      "‏</w>": 1002,
      "</w>": 1003,
      "←</w>": 1004,
      "ẻ</w>": 1005,
      "С</w>": 1006,
      "째</w>": 1007,
      "Ү</w>": 1008,
      "ॡ</w>": 1009,
      "™</w>": 1010,
      "˚</w>": 1011,
      "ॐ</w>": 1012,
      "‡</w>": 1013,
      "Ě</w>": 1014,
      "є</w>": 1015,
      "悠</w>": 1016,
      "κ</w>": 1017,
      "ુ</w>": 1018,
      "´</w>": 1019,
      "ة</w>": 1020,
      "ų</w>": 1021,
      "ŭ</w>": 1022,
      "₂</w>": 1023,
      "</w>": 1024,
      "Ê</w>": 1025,
      "ख़</w>": 1026,
      "⁴</w>": 1027,
      "</w>": 1028,
      "</w>": 1029,
      "ऌ</w>": 1030,
      "</w>": 1031,
      "ª</w>": 1032,
      "</w>": 1033,
      "й</w>": 1034,
      "‐</w>": 1035,
      "ã</w>": 1036,
      "⅗</w>": 1037,
      "η</w>": 1038,
      "⁵</w>": 1039,
      "£</w>": 1040,
      "√</w>": 1041,
      "ò</w>": 1042,
      "∕</w>": 1043,
      "♪</w>": 1044,
      "ν</w>": 1045,
      "©</w>": 1046,
      "ź</w>": 1047,
      "ː</w>": 1048,
      "ষ</w>": 1049,
      "μ</w>": 1050,
      "„</w>": 1051,
      "Θ</w>": 1052,
      "な</w>": 1053,
      "⌈</w>": 1054,
      "\u0014</w>": 1055,
      "⇒</w>": 1056,
      "</w>": 1057,
      "þ</w>": 1058,
      "Ž</w>": 1059,
      "ủ</w>": 1060,
      "τ</w>": 1061,
      "⋯</w>": 1062,
      "</w>": 1063,
      "π</w>": 1064,
      "≠</w>": 1065,
      "ą</w>": 1066,
      "秦</w>": 1067,
      "</w>": 1068,
      "⅓</w>": 1069,
      "ی</w>": 1070,
      "</w>": 1071,
      "ǆ</w>": 1072,
      "_</w>": 1073,
      "ý</w>": 1074,
      "</w>": 1075,
      "</w>": 1076,
      "ɓ</w>": 1077,
      "†</w>": 1078,
      "Ω</w>": 1079,
      "́</w>": 1080,
      "ñ</w>": 1081,
      "ॠ</w>": 1082,
      "ن</w>": 1083,
      "</w>": 1084,
      "Ş</w>": 1085,
      "ج</w>": 1086,
      "র</w>": 1087,
      "</w>": 1088,
      "½</w>": 1089,
      "ṣ</w>": 1090,
      "⅖</w>": 1091,
      "⁶</w>": 1092,
      "■</w>": 1093,
      "</w>": 1094,
      "س</w>": 1095,
      "θ</w>": 1096,
      "⅙</w>": 1097,
      "¡</w>": 1098,
      "˜</w>": 1099,
      "Ö</w>": 1100,
      "﻿</w>": 1101,
      "‑</w>": 1102,
      "‰</w>": 1103,
      "থ</w>": 1104,
      "×</w>": 1105,
      "ṇ</w>": 1106,
      "ḷ</w>": 1107,
      "ऱ</w>": 1108,
      "</w>": 1109,
      "¦</w>": 1110,
      "ت</w>": 1111,
      "続</w>": 1112,
      "￼</w>": 1113,
      "⅘</w>": 1114,
      "Å</w>": 1115,
      "∶</w>": 1116,
      "⏎</w>": 1117,
      "➣</w>": 1118,
      "β</w>": 1119,
      "ੀ</w>": 1120,
      "</w>": 1121,
      "Δ</w>": 1122,
      "</w>": 1123,
      "̀</w>": 1124,
      "¿</w>": 1125,
      "§</w>": 1126,
      "设</w>": 1127,
      "ю</w>": 1128,
      "γ</w>": 1129,
      "─</w>": 1130,
      "⁷</w>": 1131,
      "ο</w>": 1132,
      "Ś</w>": 1133,
      "⌋</w>": 1134,
      "⌉</w>": 1135,
      "Ľ</w>": 1136,
      "Β</w>": 1137,
      "ু</w>": 1138,
      "</w>": 1139,
      "→</w>": 1140,
      "λ</w>": 1141,
      "İ</w>": 1142,
      "字</w>": 1143,
      "預</w>": 1144,
      "Ă</w>": 1145,
      "</w>": 1146,
      "˘</w>": 1147,
      "ô</w>": 1148,
      "Č</w>": 1149,
      "th": 1150,
      "an": 1151,
      "in": 1152,
      "the</w>": 1153,
      "के</w>": 1154,
      "्र": 1155,
      "er": 1156,
      "ें</w>": 1157,
      "ti": 1158,
      "en": 1159,
      "of</w>": 1160,
      "re": 1161,
      "है</w>": 1162,
      "ar": 1163,
      "र्": 1164,
      "ed</w>": 1165,
      "ने</w>": 1166,
      "में</w>": 1167,
      "and</w>": 1168,
      "on": 1169,
      "ों</w>": 1170,
      "on</w>": 1171,
      "ou": 1172,
      "की</w>": 1173,
      "और</w>": 1174,
      "or": 1175,
      "से</w>": 1176,
      "ार": 1177,
      "to</w>": 1178,
      "या</w>": 1179,
      "er</w>": 1180,
      "is</w>": 1181,
      "स्": 1182,
      "ing</w>": 1183,
      "प्र": 1184,
      "in</w>": 1185,
      "al": 1186,
      "it": 1187,
      "क्": 1188,
      "es</w>": 1189,
      "at": 1190,
      "ता</w>": 1191,
      "का</w>": 1192,
      "st": 1193,
      "कर": 1194,
      "ro": 1195,
      "ha": 1196,
      "or</w>": 1197,
      "को</w>": 1198,
      "वि": 1199,
      "न्": 1200,
      "का": 1201,
      "मा": 1202,
      "वा": 1203,
      "त्": 1204,
      "नि": 1205,
      "il": 1206,
      "the": 1207,
      "लि": 1208,
      "el": 1209,
      "tion</w>": 1210,
      "ic": 1211,
      "कि": 1212,
      "is": 1213,
      "al</w>": 1214,
      "ec": 1215,
      "ना</w>": 1216,
      "ac": 1217,
      "या": 1218,
      "es": 1219,
      "om": 1220,
      "at</w>": 1221,
      "जा": 1222,
      "wh": 1223,
      "सं": 1224,
      "रा": 1225,
      "कि</w>": 1226,
      "सा": 1227,
      "Th": 1228,
      "ent</w>": 1229,
      "ैं</w>": 1230,
      "as": 1231,
      "ve</w>": 1232,
      "an</w>": 1233,
      "ur": 1234,
      "en</w>": 1235,
      "ते</w>": 1236,
      "no": 1237,
      "as</w>": 1238,
      "di": 1239,
      "द्": 1240,
      "पर</w>": 1241,
      "ला": 1242,
      "हैं</w>": 1243,
      "दे": 1244,
      "हो": 1245,
      "la": 1246,
      "ित</w>": 1247,
      "लिए</w>": 1248,
      "si": 1249,
      "for</w>": 1250,
      "le</w>": 1251,
      "ri": 1252,
      "तु": 1253,
      "ीं</w>": 1254,
      "भी</w>": 1255,
      "बा": 1256,
      "कर</w>": 1257,
      "ra": 1258,
      "ly</w>": 1259,
      "li": 1260,
      "un": 1261,
      "दि": 1262,
      "ति</w>": 1263,
      "ना": 1264,
      "ही</w>": 1265,
      "एक</w>": 1266,
      "ou</w>": 1267,
      "that</w>": 1268,
      "ev": 1269,
      "हा": 1270,
      "em": 1271,
      "हीं</w>": 1272,
      "क्ष": 1273,
      "se</w>": 1274,
      "ma": 1275,
      "पा": 1276,
      "ल्": 1277,
      "अप": 1278,
      "जि": 1279,
      "था</w>": 1280,
      "तो</w>": 1281,
      "ड़": 1282,
      "am": 1283,
      "pro": 1284,
      "lo": 1285,
      "नहीं</w>": 1286,
      "ति": 1287,
      "ष्": 1288,
      "su": 1289,
      "हु": 1290,
      "सम": 1291,
      "you</w>": 1292,
      "et": 1293,
      "ol": 1294,
      "ab": 1295,
      "जो</w>": 1296,
      "it</w>": 1297,
      "ता": 1298,
      "be</w>": 1299,
      "सी</w>": 1300,
      "यो": 1301,
      "The</w>": 1302,
      "are</w>": 1303,
      "op": 1304,
      "रि": 1305,
      "ती</w>": 1306,
      "sh": 1307,
      "्य": 1308,
      "con": 1309,
      "not</w>": 1310,
      "चा": 1311,
      "हो</w>": 1312,
      "ce</w>": 1313,
      "उन": 1314,
      "लो": 1315,
      "ले</w>": 1316,
      "ea": 1317,
      "ent": 1318,
      "ation</w>": 1319,
      "नी</w>": 1320,
      "ith</w>": 1321,
      "ag": 1322,
      "उस": 1323,
      "com": 1324,
      "ch": 1325,
      "ers</w>": 1326,
      "म्": 1327,
      "यों</w>": 1328,
      "मु": 1329,
      "दा": 1330,
      "श्": 1331,
      "tion": 1332,
      "मि": 1333,
      "with</w>": 1334,
      "ere</w>": 1335,
      "भा": 1336,
      "किया</w>": 1337,
      "be": 1338,
      "ज़": 1339,
      "for": 1340,
      "all</w>": 1341,
      "In": 1342,
      "ex": 1343,
      "रह": 1344,
      "यह</w>": 1345,
      "po": 1346,
      "st</w>": 1347,
      "id": 1348,
      "ay</w>": 1349,
      "कु": 1350,
      "gh": 1351,
      "धि": 1352,
      "by</w>": 1353,
      "दा</w>": 1354,
      "our</w>": 1355,
      "oun": 1356,
      "ver": 1357,
      "को": 1358,
      "इस</w>": 1359,
      "पू": 1360,
      "ill</w>": 1361,
      "ला</w>": 1362,
      "res": 1363,
      "त्र": 1364,
      "ले": 1365,
      "स्थ": 1366,
      "ment</w>": 1367,
      "rom</w>": 1368,
      "वह</w>": 1369,
      "ir": 1370,
      "ंग": 1371,
      "ate</w>": 1372,
      "ad": 1373,
      "ारा</w>": 1374,
      "have</w>": 1375,
      "हि": 1376,
      "from</w>": 1377,
      "they</w>": 1378,
      "कार</w>": 1379,
      "pl": 1380,
      "रू": 1381,
      "was</w>": 1382,
      "करने</w>": 1383,
      "ये</w>": 1384,
      "de": 1385,
      "ीय</w>": 1386,
      "tr": 1387,
      "ul": 1388,
      "ity</w>": 1389,
      "th</w>": 1390,
      "ली</w>": 1391,
      "ther</w>": 1392,
      "will</w>": 1393,
      "ir</w>": 1394,
      "ारी</w>": 1395,
      "गा</w>": 1396,
      "नु": 1397,
      "ld</w>": 1398,
      "सि": 1399,
      "हम": 1400,
      "ts</w>": 1401,
      "ज्": 1402,
      "सक": 1403,
      "bu": 1404,
      "them</w>": 1405,
      "hi": 1406,
      "oo": 1407,
      "this</w>": 1408,
      "se": 1409,
      "तर": 1410,
      "इस": 1411,
      "ख़": 1412,
      "ta": 1413,
      "Al": 1414,
      "ds</w>": 1415,
      "वर्": 1416,
      "ci": 1417,
      "मे": 1418,
      "ारे</w>": 1419,
      "du": 1420,
      "अपने</w>": 1421,
      "ear": 1422,
      "ich</w>": 1423,
      "qu": 1424,
      "per": 1425,
      "शा": 1426,
      "has</w>": 1427,
      "सु": 1428,
      "one</w>": 1429,
      "री</w>": 1430,
      "त्र</w>": 1431,
      "अधि": 1432,
      "ap": 1433,
      "wor": 1434,
      "ष्ट": 1435,
      "which</w>": 1436,
      "ted</w>": 1437,
      "उन्": 1438,
      "उप": 1439,
      "ff": 1440,
      "mo": 1441,
      "who</w>": 1442,
      "sp": 1443,
      "धा": 1444,
      "सू": 1445,
      "भार": 1446,
      "gi": 1447,
      "do": 1448,
      "me</w>": 1449,
      "क़": 1450,
      "ने": 1451,
      "their</w>": 1452,
      "sa": 1453,
      "च्": 1454,
      "An": 1455,
      "ould</w>": 1456,
      "शि": 1457,
      "क्र": 1458,
      "नों</w>": 1459,
      "वे</w>": 1460,
      "et</w>": 1461,
      "ter</w>": 1462,
      "अनु": 1463,
      "तुम</w>": 1464,
      "प्": 1465,
      "his</w>": 1466,
      "कह": 1467,
      "im": 1468,
      "Indi": 1469,
      "ter": 1470,
      "ch</w>": 1471,
      "us": 1472,
      "ess</w>": 1473,
      "गा": 1474,
      "so</w>": 1475,
      "tions</w>": 1476,
      "पु": 1477,
      "ke</w>": 1478,
      "ure</w>": 1479,
      "he</w>": 1480,
      "गया</w>": 1481,
      "He</w>": 1482,
      "any</w>": 1483,
      "ओं</w>": 1484,
      "फ़": 1485,
      "निर्": 1486,
      "सर": 1487,
      "कुछ</w>": 1488,
      "par": 1489,
      "ght</w>": 1490,
      "दी</w>": 1491,
      "ge</w>": 1492,
      "तथा</w>": 1493,
      "20": 1494,
      "परि": 1495,
      "वे": 1496,
      "हें</w>": 1497,
      "out</w>": 1498,
      "id</w>": 1499,
      "तुम्": 1500,
      "किसी</w>": 1501,
      "der</w>": 1502,
      "फि": 1503,
      "pe": 1504,
      "de</w>": 1505,
      "सा</w>": 1506,
      "str": 1507,
      "जा</w>": 1508,
      "प्रा": 1509,
      "के": 1510,
      "ing": 1511,
      "le": 1512,
      "19": 1513,
      "पर": 1514,
      "कार्": 1515,
      "पूर्": 1516,
      "व्य": 1517,
      "गों</w>": 1518,
      "lah</w>": 1519,
      "ne": 1520,
      "रूप</w>": 1521,
      "हम</w>": 1522,
      "Allah</w>": 1523,
      "द्व": 1524,
      "साथ</w>": 1525,
      "रो": 1526,
      "ीन</w>": 1527,
      "खा": 1528,
      "Go": 1529,
      "rec": 1530,
      "ess": 1531,
      "कोई</w>": 1532,
      "um": 1533,
      "स्था": 1534,
      "And</w>": 1535,
      "कृ": 1536,
      "to": 1537,
      "मान</w>": 1538,
      "We</w>": 1539,
      "उनके</w>": 1540,
      "por": 1541,
      "तक</w>": 1542,
      "बं": 1543,
      "ated</w>": 1544,
      "dis": 1545,
      "ग्र": 1546,
      "कार": 1547,
      "थे</w>": 1548,
      "जिस": 1549,
      "द्वारा</w>": 1550,
      "ुदा</w>": 1551,
      "ose</w>": 1552,
      "hat</w>": 1553,
      "अं": 1554,
      "au": 1555,
      "ance</w>": 1556,
      "वा</w>": 1557,
      "लोगों</w>": 1558,
      "able</w>": 1559,
      "your</w>": 1560,
      "करते</w>": 1561,
      "ame</w>": 1562,
      "दू": 1563,
      "its</w>": 1564,
      "देश</w>": 1565,
      "जब</w>": 1566,
      "्य</w>": 1567,
      "eli": 1568,
      "us</w>": 1569,
      "लोग</w>": 1570,
      "दिया</w>": 1571,
      "fi": 1572,
      "राष्ट": 1573,
      "ब्": 1574,
      "ant</w>": 1575,
      "ous</w>": 1576,
      "gu": 1577,
      "me": 1578,
      "India</w>": 1579,
      "our": 1580,
      "भारत</w>": 1581,
      "ding</w>": 1582,
      "ep": 1583,
      "पह": 1584,
      "ence</w>": 1585,
      "जी": 1586,
      "tu": 1587,
      "स्व": 1588,
      "सी": 1589,
      "से": 1590,
      "रख": 1591,
      "गु": 1592,
      "स्त": 1593,
      "अल्": 1594,
      "age</w>": 1595,
      "योग</w>": 1596,
      "िक</w>": 1597,
      "wn</w>": 1598,
      "यु": 1599,
      "रा</w>": 1600,
      "red</w>": 1601,
      "लाह</w>": 1602,
      "ear</w>": 1603,
      "्या": 1604,
      "est</w>": 1605,
      "but</w>": 1606,
      "ंग</w>": 1607,
      "फिर</w>": 1608,
      "तुम्ह": 1609,
      "क्या</w>": 1610,
      "गी</w>": 1611,
      "other</w>": 1612,
      "क्त</w>": 1613,
      "cl": 1614,
      "sec": 1615,
      "राष्ट्र": 1616,
      "रे</w>": 1617,
      "बे": 1618,
      "ar</w>": 1619,
      "उत्": 1620,
      "pu": 1621,
      "भि": 1622,
      "vi": 1623,
      "बि": 1624,
      "we</w>": 1625,
      "अल्लाह</w>": 1626,
      "जाता</w>": 1627,
      "ents</w>": 1628,
      "ख़ुदा</w>": 1629,
      "उसके</w>": 1630,
      "उस</w>": 1631,
      "ंने</w>": 1632,
      "been</w>": 1633,
      "प्रति": 1634,
      "sel": 1635,
      "अव": 1636,
      "मं": 1637,
      "kno": 1638,
      "अपनी</w>": 1639,
      "चि": 1640,
      "ंगे</w>": 1641,
      "coun": 1642,
      "थी</w>": 1643,
      "ary</w>": 1644,
      "ople</w>": 1645,
      "ome</w>": 1646,
      "do</w>": 1647,
      "were</w>": 1648,
      "नी": 1649,
      "so": 1650,
      "bo": 1651,
      "बना": 1652,
      "करें</w>": 1653,
      "कहा</w>": 1654,
      "करना</w>": 1655,
      "अन्": 1656,
      "ay": 1657,
      "had</w>": 1658,
      "डि": 1659,
      "ho": 1660,
      "cre": 1661,
      "ect</w>": 1662,
      "श्र": 1663,
      "rou": 1664,
      "जी</w>": 1665,
      "निय": 1666,
      "लों</w>": 1667,
      "gh</w>": 1668,
      "duc": 1669,
      "ज्ञ": 1670,
      "him</w>": 1671,
      "ong</w>": 1672,
      "बहु": 1673,
      "दु": 1674,
      "मू": 1675,
      "those</w>": 1676,
      "ver</w>": 1677,
      "can</w>": 1678,
      "गर</w>": 1679,
      "ore</w>": 1680,
      "ज़</w>": 1681,
      "बी": 1682,
      "दि</w>": 1683,
      "der": 1684,
      "war": 1685,
      "क्षे": 1686,
      "ty</w>": 1687,
      "It</w>": 1688,
      "co": 1689,
      "मैं</w>": 1690,
      "said</w>": 1691,
      "people</w>": 1692,
      "ढ़": 1693,
      "pre": 1694,
      "min": 1695,
      "मान": 1696,
      "रहे</w>": 1697,
      "beli": 1698,
      "tic": 1699,
      "ally</w>": 1700,
      "वाले</w>": 1701,
      "fu": 1702,
      "go": 1703,
      "tive</w>": 1704,
      "हुए</w>": 1705,
      "when</w>": 1706,
      "and": 1707,
      "tional</w>": 1708,
      "ey</w>": 1709,
      "shall</w>": 1710,
      "pres": 1711,
      "गे</w>": 1712,
      "योज": 1713,
      "क्ति</w>": 1714,
      "ord</w>": 1715,
      "ever</w>": 1716,
      "est": 1717,
      "चु": 1718,
      "king</w>": 1719,
      "दो": 1720,
      "उन्हें</w>": 1721,
      "प्त</w>": 1722,
      "करता</w>": 1723,
      "च्छ": 1724,
      "उन</w>": 1725,
      "रु": 1726,
      "end": 1727,
      "ni": 1728,
      "ish": 1729,
      "pr": 1730,
      "होता</w>": 1731,
      "we": 1732,
      "धार": 1733,
      "ace</w>": 1734,
      "ties</w>": 1735,
      "ser": 1736,
      "जाए": 1737,
      "दर्": 1738,
      "बड़": 1739,
      "ings</w>": 1740,
      "ves</w>": 1741,
      "fa": 1742,
      "देख": 1743,
      "ru": 1744,
      "मा</w>": 1745,
      "होंने</w>": 1746,
      "रहा</w>": 1747,
      "comm": 1748,
      "if</w>": 1749,
      "ist": 1750,
      "also</w>": 1751,
      "sion</w>": 1752,
      "ting</w>": 1753,
      "ड़</w>": 1754,
      "उसे</w>": 1755,
      "तर</w>": 1756,
      "कों</w>": 1757,
      "what</w>": 1758,
      "हर</w>": 1759,
      "वर": 1760,
      "ase</w>": 1761,
      "सकता</w>": 1762,
      "आप</w>": 1763,
      "God</w>": 1764,
      "mu": 1765,
      "Wh": 1766,
      "आप": 1767,
      "ice</w>": 1768,
      "पै": 1769,
      "sti": 1770,
      "पी": 1771,
      "शन</w>": 1772,
      "दो</w>": 1773,
      "har": 1774,
      "क्षा</w>": 1775,
      "र्थ": 1776,
      "गि": 1777,
      "ज्ञा": 1778,
      "In</w>": 1779,
      "cont": 1780,
      "prov": 1781,
      "डा": 1782,
      "201": 1783,
      "बु": 1784,
      "tur": 1785,
      "there</w>": 1786,
      "जै": 1787,
      "तु</w>": 1788,
      "धि</w>": 1789,
      "टी</w>": 1790,
      "समय</w>": 1791,
      "बहुत</w>": 1792,
      "मो": 1793,
      "द्र": 1794,
      "बाद</w>": 1795,
      "ks</w>": 1796,
      "रे": 1797,
      "ine</w>": 1798,
      "कर्": 1799,
      "This</w>": 1800,
      "led</w>": 1801,
      "ig": 1802,
      "Lord</w>": 1803,
      "ष्ट</w>": 1804,
      "day</w>": 1805,
      "ile</w>": 1806,
      "ud": 1807,
      "इन</w>": 1808,
      "may</w>": 1809,
      "tw": 1810,
      "te": 1811,
      "ood</w>": 1812,
      "शु": 1813,
      "no</w>": 1814,
      "il</w>": 1815,
      "मह": 1816,
      "री": 1817,
      "ber</w>": 1818,
      "दान</w>": 1819,
      "ell</w>": 1820,
      "भू": 1821,
      "सूच": 1822,
      "तों</w>": 1823,
      "up": 1824,
      "ang": 1825,
      "टि": 1826,
      "oc": 1827,
      "ast</w>": 1828,
      "हू": 1829,
      "eng": 1830,
      "तीय</w>": 1831,
      "त्य": 1832,
      "टा": 1833,
      "बै": 1834,
      "ons</w>": 1835,
      "पति</w>": 1836,
      "vern": 1837,
      "शे": 1838,
      "वन</w>": 1839,
      "ement</w>": 1840,
      "way</w>": 1841,
      "ory</w>": 1842,
      "ass": 1843,
      "बंध": 1844,
      "तरह</w>": 1845,
      "ut</w>": 1846,
      "मी</w>": 1847,
      "00</w>": 1848,
      "ans": 1849,
      "विश्": 1850,
      "fore</w>": 1851,
      "tra": 1852,
      "कारी</w>": 1853,
      "राज": 1854,
      "पास</w>": 1855,
      "ख्": 1856,
      "pa": 1857,
      "समा": 1858,
      "only</w>": 1859,
      "उन्होंने</w>": 1860,
      "अधिक</w>": 1861,
      "चाह": 1862,
      "gra": 1863,
      "fter</w>": 1864,
      "बात</w>": 1865,
      "हुआ</w>": 1866,
      "time</w>": 1867,
      "fin": 1868,
      "ful</w>": 1869,
      "पहले</w>": 1870,
      "ic</w>": 1871,
      "सम्": 1872,
      "would</w>": 1873,
      "bec": 1874,
      "पे": 1875,
      "such</w>": 1876,
      "जान": 1877,
      "दे</w>": 1878,
      "यदि</w>": 1879,
      "द्ध</w>": 1880,
      "हमने</w>": 1881,
      "up</w>": 1882,
      "लय</w>": 1883,
      "then</w>": 1884,
      "gr": 1885,
      "gre": 1886,
      "ies</w>": 1887,
      "दिन</w>": 1888,
      "come</w>": 1889,
      "उनकी</w>": 1890,
      "dev": 1891,
      "तुम्हारे</w>": 1892,
      "चाहि": 1893,
      "पूर्ण</w>": 1894,
      "St": 1895,
      "man": 1896,
      "mis": 1897,
      "te</w>": 1898,
      "low": 1899,
      "ound</w>": 1900,
      "चार</w>": 1901,
      "होगा</w>": 1902,
      "el</w>": 1903,
      "ations</w>": 1904,
      "ble</w>": 1905,
      "am</w>": 1906,
      "ad</w>": 1907,
      "des": 1908,
      "पर्": 1909,
      "होने</w>": 1910,
      "हां</w>": 1911,
      "सह": 1912,
      "यू": 1913,
      "pos": 1914,
      "बर</w>": 1915,
      "करण</w>": 1916,
      "छो": 1917,
      "sid": 1918,
      "गए</w>": 1919,
      "गत</w>": 1920,
      "fol": 1921,
      "ियों</w>": 1922,
      "ची": 1923,
      "av": 1924,
      "क्रि": 1925,
      "हमारे</w>": 1926,
      "Con": 1927,
      "ite</w>": 1928,
      "made</w>": 1929,
      "ंड": 1930,
      "स्ता": 1931,
      "comp": 1932,
      "thing</w>": 1933,
      "उद्": 1934,
      "Pro": 1935,
      "wi": 1936,
      "अध": 1937,
      "स्ट": 1938,
      "ture</w>": 1939,
      "ed": 1940,
      "देश": 1941,
      "fe</w>": 1942,
      "गई</w>": 1943,
      "ऐसे</w>": 1944,
      "सभी</w>": 1945,
      "ओर</w>": 1946,
      "Ch": 1947,
      "बो": 1948,
      "end</w>": 1949,
      "bl": 1950,
      "राष्ट्रपति</w>": 1951,
      "cri": 1952,
      "acc": 1953,
      "more</w>": 1954,
      "वाला</w>": 1955,
      "ath</w>": 1956,
      "हाँ</w>": 1957,
      "fir": 1958,
      "br": 1959,
      "inter": 1960,
      "about</w>": 1961,
      "enc": 1962,
      "बद": 1963,
      "ज्य</w>": 1964,
      "enti": 1965,
      "अभि": 1966,
      "Com": 1967,
      "under</w>": 1968,
      "ther": 1969,
      "झे</w>": 1970,
      "काम</w>": 1971,
      "res</w>": 1972,
      "ever": 1973,
      "पि": 1974,
      "मी": 1975,
      "चे</w>": 1976,
      "ei": 1977,
      "तुम": 1978,
      "bet": 1979,
      "न्न</w>": 1980,
      "ving</w>": 1981,
      "..": 1982,
      "should</w>": 1983,
      "ph": 1984,
      "Ac": 1985,
      "like</w>": 1986,
      "than</w>": 1987,
      "ती": 1988,
      "सकते</w>": 1989,
      "into</w>": 1990,
      "अच्छ": 1991,
      "ely</w>": 1992,
      "fac": 1993,
      "mar": 1994,
      "my</w>": 1995,
      "एव": 1996,
      "ved</w>": 1997,
      "shi": 1998,
      "प्रकार</w>": 1999,
      "इसके</w>": 2000,
      "लन</w>": 2001,
      "ise</w>": 2002,
      "ंड</w>": 2003,
      "अन्य</w>": 2004,
      "ational</w>": 2005,
      "प्राप्त</w>": 2006,
      "एं</w>": 2007,
      "ain": 2008,
      "चाहिए</w>": 2009,
      "जो": 2010,
      "कार्य</w>": 2011,
      "They</w>": 2012,
      "उसकी</w>": 2013,
      "cer": 2014,
      "cal": 2015,
      "क्षेत्र</w>": 2016,
      "यी</w>": 2017,
      "But</w>": 2018,
      "धान</w>": 2019,
      "ew</w>": 2020,
      "शी": 2021,
      "isi": 2022,
      "ical</w>": 2023,
      "ग़": 2024,
      "किए</w>": 2025,
      "ेगा</w>": 2026,
      "iz": 2027,
      "सर्": 2028,
      "ans</w>": 2029,
      "साम": 2030,
      "जन": 2031,
      "ree</w>": 2032,
      "स्थि": 2033,
      "रों</w>": 2034,
      "wr": 2035,
      "tru": 2036,
      "कम</w>": 2037,
      "dec": 2038,
      "ist</w>": 2039,
      "खु": 2040,
      "होती</w>": 2041,
      "लग": 2042,
      "दन</w>": 2043,
      "सब": 2044,
      "णा": 2045,
      "att": 2046,
      "तियों</w>": 2047,
      "anc": 2048,
      "जाने</w>": 2049,
      "some</w>": 2050,
      "ड़े</w>": 2051,
      "),</w>": 2052,
      "mon": 2053,
      "vernment</w>": 2054,
      "ते": 2055,
      "ater</w>": 2056,
      "two</w>": 2057,
      "भे": 2058,
      "इन": 2059,
      "Pre": 2060,
      "stitu": 2061,
      "क्ष</w>": 2062,
      "ऐसा</w>": 2063,
      "used</w>": 2064,
      "ज़ा": 2065,
      "new</w>": 2066,
      "200": 2067,
      "sy": 2068,
      "ener": 2069,
      "निक</w>": 2070,
      "श्च": 2071,
      "ffic": 2072,
      "Mo": 2073,
      "ach": 2074,
      "ms</w>": 2075,
      "सर</w>": 2076,
      "sub": 2077,
      "नाम</w>": 2078,
      "these</w>": 2079,
      "विका": 2080,
      "ning</w>": 2081,
      "एवं</w>": 2082,
      "over</w>": 2083,
      "मत</w>": 2084,
      "की": 2085,
      "एँ</w>": 2086,
      "अगर</w>": 2087,
      "Su": 2088,
      "ates</w>": 2089,
      "पहु": 2090,
      "ail": 2091,
      "वै": 2092,
      "भारतीय</w>": 2093,
      "पो": 2094,
      "भाग</w>": 2095,
      "stru": 2096,
      "hea": 2097,
      "मुझे</w>": 2098,
      "ेंगे</w>": 2099,
      "यन</w>": 2100,
      "व्या": 2101,
      "lea": 2102,
      "मै": 2103,
      "pp": 2104,
      "ड़ा</w>": 2105,
      "कार्य": 2106,
      "elop": 2107,
      "मार्": 2108,
      "न्या": 2109,
      "ned</w>": 2110,
      "ाइ": 2111,
      "ob": 2112,
      "तं": 2113,
      "रसू": 2114,
      "before</w>": 2115,
      "als</w>": 2116,
      "कता</w>": 2117,
      "करो</w>": 2118,
      "hel": 2119,
      "ari": 2120,
      "soci": 2121,
      "ट्": 2122,
      "ause</w>": 2123,
      "राज्य</w>": 2124,
      "टा</w>": 2125,
      "tri": 2126,
      "tain": 2127,
      "ach</w>": 2128,
      "लिया</w>": 2129,
      "टर</w>": 2130,
      "resp": 2131,
      "pla": 2132,
      "Ma": 2133,
      "old</w>": 2134,
      "वर्ष</w>": 2135,
      "सरकार</w>": 2136,
      "pers": 2137,
      "अब</w>": 2138,
      "after</w>": 2139,
      "ws</w>": 2140,
      "spec": 2141,
      "try</w>": 2142,
      "His</w>": 2143,
      "त्व</w>": 2144,
      "चा</w>": 2145,
      "ven</w>": 2146,
      "ide</w>": 2147,
      "वी</w>": 2148,
      "हर": 2149,
      "विकास</w>": 2150,
      "मंत्र": 2151,
      "गो": 2152,
      "tic</w>": 2153,
      "fic": 2154,
      "वृ": 2155,
      "कारण</w>": 2156,
      "trans": 2157,
      "किन</w>": 2158,
      "लिख": 2159,
      "ली": 2160,
      "very</w>": 2161,
      "तः</w>": 2162,
      "सब</w>": 2163,
      "बार</w>": 2164,
      "eve</w>": 2165,
      "व्यक्ति</w>": 2166,
      "life</w>": 2167,
      "em</w>": 2168,
      "धारा</w>": 2169,
      "इं": 2170,
      "दूसर": 2171,
      "who": 2172,
      "emp": 2173,
      "बढ़": 2174,
      "सो": 2175,
      "भाष": 2176,
      "ारों</w>": 2177,
      "कं": 2178,
      "गार</w>": 2179,
      "ness</w>": 2180,
      "विद्": 2181,
      "हुई</w>": 2182,
      "ind": 2183,
      "टे": 2184,
      "रसूल</w>": 2185,
      "ears</w>": 2186,
      "ook</w>": 2187,
      "ily</w>": 2188,
      "self</w>": 2189,
      "work</w>": 2190,
      "ial</w>": 2191,
      "मौ": 2192,
      "ens</w>": 2193,
      "ell": 2194,
      "शा</w>": 2195,
      "उसने</w>": 2196,
      "ays</w>": 2197,
      "दृ": 2198,
      "दार</w>": 2199,
      "ack</w>": 2200,
      "re</w>": 2201,
      "निश्च": 2202,
      "man</w>": 2203,
      "fer": 2204,
      "ish</w>": 2205,
      "ating</w>": 2206,
      "दोनों</w>": 2207,
      "लेकिन</w>": 2208,
      "use</w>": 2209,
      "with": 2210,
      "कै": 2211,
      "्रे": 2212,
      "Ex": 2213,
      "स्थान</w>": 2214,
      "um</w>": 2215,
      "यां</w>": 2216,
      "धन</w>": 2217,
      "So</w>": 2218,
      "यता</w>": 2219,
      "ors</w>": 2220,
      "ak": 2221,
      "नियम</w>": 2222,
      "say</w>": 2223,
      "most</w>": 2224,
      "्रा": 2225,
      "believ": 2226,
      "प्रे": 2227,
      "ind</w>": 2228,
      "im</w>": 2229,
      "क्षण</w>": 2230,
      "तुम्हें</w>": 2231,
      "being</w>": 2232,
      "बन्": 2233,
      "पं": 2234,
      "Indian</w>": 2235,
      "तन</w>": 2236,
      "If</w>": 2237,
      "त्व": 2238,
      "ses</w>": 2239,
      "sident</w>": 2240,
      "En": 2241,
      "ड़ी</w>": 2242,
      "wer</w>": 2243,
      "खो": 2244,
      "स्वा": 2245,
      "जाती</w>": 2246,
      "pri": 2247,
      "sig": 2248,
      "mem": 2249,
      "प्रदान</w>": 2250,
      "विशे": 2251,
      "रत</w>": 2252,
      "सार</w>": 2253,
      "ow</w>": 2254,
      "ंकि</w>": 2255,
      "ऐसी</w>": 2256,
      "सामा": 2257,
      "महा": 2258,
      "her</w>": 2259,
      "ying</w>": 2260,
      "val": 2261,
      "throu": 2262,
      "col": 2263,
      "जू": 2264,
      "ected</w>": 2265,
      "वाली</w>": 2266,
      "You</w>": 2267,
      "जिन": 2268,
      "द्र</w>": 2269,
      "युक्त</w>": 2270,
      "serv": 2271,
      "दिखा": 2272,
      "मिल</w>": 2273,
      "धार</w>": 2274,
      "व्यव": 2275,
      "जन</w>": 2276,
      "होते</w>": 2277,
      "दों</w>": 2278,
      "तिक</w>": 2279,
      "ffer": 2280,
      "ut": 2281,
      "वल</w>": 2282,
      "ection</w>": 2283,
      "योग": 2284,
      "log": 2285,
      "fe": 2286,
      "सहा": 2287,
      "जु": 2288,
      "ked</w>": 2289,
      "जैसे</w>": 2290,
      "mer": 2291,
      "ur</w>": 2292,
      "प्रभा": 2293,
      "्र</w>": 2294,
      "जिस</w>": 2295,
      "जीवन</w>": 2296,
      "ship</w>": 2297,
      "int": 2298,
      "port": 2299,
      "exc": 2300,
      "मुख": 2301,
      "Sh": 2302,
      "ण्": 2303,
      "सद": 2304,
      "रब</w>": 2305,
      "संबंध": 2306,
      "ress</w>": 2307,
      "proc": 2308,
      "lation</w>": 2309,
      "तना</w>": 2310,
      "बारे</w>": 2311,
      "रही</w>": 2312,
      "char": 2313,
      "ast": 2314,
      "ग्रा": 2315,
      "आव": 2316,
      "बीच</w>": 2317,
      ").</w>": 2318,
      "लता</w>": 2319,
      "eg": 2320,
      "world</w>": 2321,
      "ard</w>": 2322,
      "समझ": 2323,
      "ज्ञान</w>": 2324,
      "good</w>": 2325,
      "see</w>": 2326,
      "श्य": 2327,
      "port</w>": 2328,
      "inv": 2329,
      "even</w>": 2330,
      "उसका</w>": 2331,
      "low</w>": 2332,
      "Un": 2333,
      "sin": 2334,
      "through</w>": 2335,
      "दी": 2336,
      "deed</w>": 2337,
      "ill": 2338,
      "ween</w>": 2339,
      "form": 2340,
      "रान</w>": 2341,
      "mation</w>": 2342,
      "make</w>": 2343,
      "...</w>": 2344,
      "स्था</w>": 2345,
      "योजना</w>": 2346,
      "ंक</w>": 2347,
      "वर</w>": 2348,
      "मक</w>": 2349,
      "well</w>": 2350,
      "संग": 2351,
      "टे</w>": 2352,
      "between</w>": 2353,
      "।\"</w>": 2354,
      "ful": 2355,
      "हों</w>": 2356,
      "ech": 2357,
      "section</w>": 2358,
      "स्त</w>": 2359,
      "how</w>": 2360,
      "struc": 2361,
      "दर</w>": 2362,
      "President</w>": 2363,
      "mat": 2364,
      "develop": 2365,
      "loc": 2366,
      "दौ": 2367,
      "peri": 2368,
      "ept</w>": 2369,
      "pur": 2370,
      "मेरे</w>": 2371,
      "fl": 2372,
      "बी</w>": 2373,
      "कल्": 2374,
      "ong": 2375,
      "ज़ि": 2376,
      "ided</w>": 2377,
      "thou": 2378,
      "country</w>": 2379,
      "अल": 2380,
      "स्थाप": 2381,
      "ities</w>": 2382,
      "अर्": 2383,
      "राष्ट्रीय</w>": 2384,
      "loo": 2385,
      "मों</w>": 2386,
      "बू": 2387,
      "tor</w>": 2388,
      "equ": 2389,
      "many</w>": 2390,
      "name</w>": 2391,
      "ईमान</w>": 2392,
      "are": 2393,
      "ject</w>": 2394,
      "यालय</w>": 2395,
      "her": 2396,
      "fo": 2397,
      "cap": 2398,
      "ju": 2399,
      "Min": 2400,
      "down</w>": 2401,
      "न्य</w>": 2402,
      "know</w>": 2403,
      "upon</w>": 2404,
      "बंध</w>": 2405,
      "first</w>": 2406,
      "कू": 2407,
      "believe</w>": 2408,
      "स्थिति</w>": 2409,
      "वाद</w>": 2410,
      "per</w>": 2411,
      "याँ</w>": 2412,
      "प्रयोग</w>": 2413,
      "ft</w>": 2414,
      "uring</w>": 2415,
      "त्रों</w>": 2416,
      "उनका</w>": 2417,
      "does</w>": 2418,
      "ue</w>": 2419,
      "हमें</w>": 2420,
      "years</w>": 2421,
      "tiv": 2422,
      "क्रिया</w>": 2423,
      "जाएगा</w>": 2424,
      "Government</w>": 2425,
      "केवल</w>": 2426,
      "Par": 2427,
      "वी": 2428,
      "वही</w>": 2429,
      "ism</w>": 2430,
      "could</w>": 2431,
      "उठ": 2432,
      "ps</w>": 2433,
      "there": 2434,
      "ange</w>": 2435,
      "lar</w>": 2436,
      "lic</w>": 2437,
      "ash": 2438,
      "ंत</w>": 2439,
      "ded</w>": 2440,
      "शक</w>": 2441,
      "act</w>": 2442,
      "जिसमें</w>": 2443,
      "get</w>": 2444,
      "लें</w>": 2445,
      "num": 2446,
      "ga": 2447,
      "स्प": 2448,
      "where</w>": 2449,
      "भिन्न</w>": 2450,
      "ताकि</w>": 2451,
      "stri": 2452,
      "cur": 2453,
      "आर": 2454,
      "sch": 2455,
      "hear": 2456,
      "डर</w>": 2457,
      "car": 2458,
      "ns</w>": 2459,
      "jo": 2460,
      "तर्": 2461,
      "शो": 2462,
      "own</w>": 2463,
      "आवश्य": 2464,
      "cor": 2465,
      "There</w>": 2466,
      "हूँ</w>": 2467,
      "ainst</w>": 2468,
      "tim": 2469,
      "हे": 2470,
      "under": 2471,
      "set</w>": 2472,
      "eal": 2473,
      "अपना</w>": 2474,
      "produc": 2475,
      "नो": 2476,
      "पत्": 2477,
      "did</w>": 2478,
      "ited</w>": 2479,
      "चे": 2480,
      "against</w>": 2481,
      "right</w>": 2482,
      "ef": 2483,
      "exp": 2484,
      "ether</w>": 2485,
      "निर्धार": 2486,
      "क्यो": 2487,
      "year</w>": 2488,
      "take</w>": 2489,
      "विष": 2490,
      "जे": 2491,
      "लने</w>": 2492,
      "ry</w>": 2493,
      "सफ": 2494,
      "वालों</w>": 2495,
      "clu": 2496,
      "माण</w>": 2497,
      "ध्य": 2498,
      "जाना</w>": 2499,
      "ताओं</w>": 2500,
      "mess": 2501,
      "all": 2502,
      "हमारी</w>": 2503,
      "कृत</w>": 2504,
      "pol": 2505,
      "दूसरे</w>": 2506,
      "ature</w>": 2507,
      "वार</w>": 2508,
      "ाइल</w>": 2509,
      "tt": 2510,
      "yp": 2511,
      "requ": 2512,
      "उसी</w>": 2513,
      "प्रत्य": 2514,
      "यार</w>": 2515,
      "सबसे</w>": 2516,
      "ye</w>": 2517,
      "उपयोग</w>": 2518,
      "श्य</w>": 2519,
      "वास</w>": 2520,
      "इसे</w>": 2521,
      "All</w>": 2522,
      "ets</w>": 2523,
      "क़</w>": 2524,
      "lan": 2525,
      "प्रति</w>": 2526,
      "लो</w>": 2527,
      "्रि": 2528,
      "प्रो": 2529,
      "earth</w>": 2530,
      "cent": 2531,
      "देने</w>": 2532,
      "formation</w>": 2533,
      "mi": 2534,
      "फ्": 2535,
      "उत्पा": 2536,
      "खि": 2537,
      "div": 2538,
      "अथ": 2539,
      "मन</w>": 2540,
      "rely</w>": 2541,
      "dy</w>": 2542,
      "sed</w>": 2543,
      "ome": 2544,
      "बड़ा</w>": 2545,
      "जाए</w>": 2546,
      "पैदा</w>": 2547,
      "पत्र</w>": 2548,
      "ward</w>": 2549,
      "लब्": 2550,
      "त्य</w>": 2551,
      "Is": 2552,
      "जाते</w>": 2553,
      "लगा": 2554,
      "ow": 2555,
      "फ़</w>": 2556,
      "place</w>": 2557,
      "form</w>": 2558,
      "dre": 2559,
      "श्री</w>": 2560,
      "give</w>": 2561,
      "ility</w>": 2562,
      "डे": 2563,
      "Act</w>": 2564,
      "इसमें</w>": 2565,
      "सूचना</w>": 2566,
      "मे</w>": 2567,
      "सन</w>": 2568,
      "खा</w>": 2569,
      "less</w>": 2570,
      "बल्": 2571,
      "क्योंकि</w>": 2572,
      "पश्": 2573,
      "lar": 2574,
      "क्रम</w>": 2575,
      "10</w>": 2576,
      "bas": 2577,
      "rev": 2578,
      "int</w>": 2579,
      "देता</w>": 2580,
      "syst": 2581,
      "निक": 2582,
      "तम</w>": 2583,
      "ढ़</w>": 2584,
      "जिसे</w>": 2585,
      "आज</w>": 2586,
      "mil": 2587,
      "जिन्": 2588,
      "hi</w>": 2589,
      "न्तु</w>": 2590,
      "माम": 2591,
      "स्तु": 2592,
      "blic</w>": 2593,
      "Ra": 2594,
      "कंप": 2595,
      "है": 2596,
      "tis": 2597,
      "ised</w>": 2598,
      "fun": 2599,
      "fil": 2600,
      "अधिनियम</w>": 2601,
      "given</w>": 2602,
      "part</w>": 2603,
      "land</w>": 2604,
      "पूर्व</w>": 2605,
      "eas": 2606,
      "ric": 2607,
      "उपलब्": 2608,
      "टी": 2609,
      "आं": 2610,
      "बना</w>": 2611,
      "ep</w>": 2612,
      "tre": 2613,
      "धी</w>": 2614,
      "gan": 2615,
      "chil": 2616,
      "घा": 2617,
      "अथवा</w>": 2618,
      "पी</w>": 2619,
      "डी</w>": 2620,
      "No": 2621,
      "det": 2622,
      "ya</w>": 2623,
      "उनसे</w>": 2624,
      "among</w>": 2625,
      "स्वी": 2626,
      "cul": 2627,
      "Mu": 2628,
      "ages</w>": 2629,
      "था": 2630,
      "ants</w>": 2631,
      "know": 2632,
      "र्म</w>": 2633,
      "Ad": 2634,
      "read": 2635,
      "sur": 2636,
      "ken</w>": 2637,
      "because</w>": 2638,
      "उससे</w>": 2639,
      "sent</w>": 2640,
      "तब</w>": 2641,
      "app": 2642,
      "ished</w>": 2643,
      "sup": 2644,
      "Di": 2645,
      "तै": 2646,
      "differ": 2647,
      "माल</w>": 2648,
      "कभी</w>": 2649,
      "ee</w>": 2650,
      "त्या": 2651,
      "Him</w>": 2652,
      "hum": 2653,
      "ll</w>": 2654,
      "sha": 2655,
      "fied</w>": 2656,
      "indu": 2657,
      "ments</w>": 2658,
      "ision</w>": 2659,
      "oper": 2660,
      "cu": 2661,
      "18": 2662,
      "State</w>": 2663,
      "direc": 2664,
      "परवर": 2665,
      "दिगार</w>": 2666,
      "now</w>": 2667,
      "फा": 2668,
      "मूल्": 2669,
      "cla": 2670,
      "plic": 2671,
      "परवरदिगार</w>": 2672,
      "can": 2673,
      "ri</w>": 2674,
      "row": 2675,
      "reli": 2676,
      "ext</w>": 2677,
      "करा": 2678,
      "निया</w>": 2679,
      "कें": 2680,
      "cha": 2681,
      "धा</w>": 2682,
      "must</w>": 2683,
      "gener": 2684,
      "olu": 2685,
      "of": 2686,
      "शी</w>": 2687,
      "नीय</w>": 2688,
      "tain</w>": 2689,
      "तौ": 2690,
      "accoun": 2691,
      "निका": 2692,
      "abl": 2693,
      "dge</w>": 2694,
      "When</w>": 2695,
      "bi": 2696,
      "कॉ": 2697,
      "eds</w>": 2698,
      "thers</w>": 2699,
      "बस</w>": 2700,
      "wom": 2701,
      "turn</w>": 2702,
      "सकती</w>": 2703,
      "च्च": 2704,
      "every</w>": 2705,
      "men</w>": 2706,
      "lit": 2707,
      "star": 2708,
      "बर": 2709,
      "पहुँ": 2710,
      "ality</w>": 2711,
      "ख्या</w>": 2712,
      "Our</w>": 2713,
      "mp": 2714,
      "पन</w>": 2715,
      "ual</w>": 2716,
      "शब्": 2717,
      "बड़ी</w>": 2718,
      "ra</w>": 2719,
      "consi": 2720,
      "करती</w>": 2721,
      "part": 2722,
      "षण</w>": 2723,
      "कृति</w>": 2724,
      "ंच</w>": 2725,
      "ran": 2726,
      "यक</w>": 2727,
      "इसलिए</w>": 2728,
      "संदेश</w>": 2729,
      "ese</w>": 2730,
      "ट्र": 2731,
      "णी</w>": 2732,
      "ha</w>": 2733,
      "टन</w>": 2734,
      "Re": 2735,
      "चीज़</w>": 2736,
      "हूं</w>": 2737,
      "चित</w>": 2738,
      "ink</w>": 2739,
      "rel": 2740,
      "शिक्षा</w>": 2741,
      "सहायता</w>": 2742,
      "199": 2743,
      "कई</w>": 2744,
      "यर</w>": 2745,
      "od</w>": 2746,
      "नू": 2747,
      "compl": 2748,
      "इन्": 2749,
      "खे": 2750,
      "vari": 2751,
      "ems</w>": 2752,
      "लिये</w>": 2753,
      "वेश</w>": 2754,
      "मित</w>": 2755,
      "अलग</w>": 2756,
      "आय": 2757,
      ".\"</w>": 2758,
      "selves</w>": 2759,
      "ke": 2760,
      "just</w>": 2761,
      "मिक</w>": 2762,
      "ire</w>": 2763,
      "त्ता</w>": 2764,
      "great</w>": 2765,
      "order</w>": 2766,
      "हार</w>": 2767,
      "while</w>": 2768,
      "होना</w>": 2769,
      "बल्कि</w>": 2770,
      "To</w>": 2771,
      "On": 2772,
      "्यू": 2773,
      "pat": 2774,
      "econ": 2775,
      "तें</w>": 2776,
      "र्इ</w>": 2777,
      "मेरी</w>": 2778,
      "उनमें</w>": 2779,
      "कुल</w>": 2780,
      "लत</w>": 2781,
      "ain</w>": 2782,
      "संस्": 2783,
      "away</w>": 2784,
      "some": 2785,
      "follow": 2786,
      "हित</w>": 2787,
      "सूची</w>": 2788,
      "योगि": 2789,
      "र्य</w>": 2790,
      "भी": 2791,
      "ner</w>": 2792,
      "need</w>": 2793,
      "पुन": 2794,
      "gl": 2795,
      "ide": 2796,
      "बैठ": 2797,
      "water</w>": 2798,
      "पता</w>": 2799,
      "निर्माण</w>": 2800,
      "cour": 2801,
      "बरा": 2802,
      "bel": 2803,
      "प्रका": 2804,
      "De": 2805,
      "इससे</w>": 2806,
      "sts</w>": 2807,
      "ata</w>": 2808,
      "ध्या": 2809,
      "For</w>": 2810,
      "भु": 2811,
      "सदस्": 2812,
      "शामिल</w>": 2813,
      "यत</w>": 2814,
      "याद</w>": 2815,
      "mit": 2816,
      "होगी</w>": 2817,
      "here</w>": 2818,
      "वरण</w>": 2819,
      "back</w>": 2820,
      "Day</w>": 2821,
      "यहाँ</w>": 2822,
      "auth": 2823,
      "dem": 2824,
      "fam": 2825,
      "शै": 2826,
      "ety</w>": 2827,
      "tical</w>": 2828,
      "विशेष</w>": 2829,
      "ंभ</w>": 2830,
      "number</w>": 2831,
      "national</w>": 2832,
      "डी": 2833,
      "कहते</w>": 2834,
      "stry</w>": 2835,
      "आगे</w>": 2836,
      "परिवर्": 2837,
      "fore": 2838,
      "vers": 2839,
      "करके</w>": 2840,
      "कह</w>": 2841,
      "ects</w>": 2842,
      "go</w>": 2843,
      "रच": 2844,
      "sm": 2845,
      "जहां</w>": 2846,
      "ban": 2847,
      "posi": 2848,
      "दौरान</w>": 2849,
      "ative</w>": 2850,
      "power</w>": 2851,
      "ord": 2852,
      "IN": 2853,
      "sen": 2854,
      "त्रा</w>": 2855,
      "ten</w>": 2856,
      "लं": 2857,
      "dra": 2858,
      "भाव": 2859,
      "during</w>": 2860,
      "ोल्": 2861,
      "ini": 2862,
      "person</w>": 2863,
      "Cent": 2864,
      "ital</w>": 2865,
      "तान</w>": 2866,
      "gar": 2867,
      "जिन</w>": 2868,
      "रक्षा</w>": 2869,
      "believers</w>": 2870,
      "पार": 2871,
      "मृ": 2872,
      "000</w>": 2873,
      "लित</w>": 2874,
      "regi": 2875,
      "As": 2876,
      "वास्त": 2877,
      "each</w>": 2878,
      "उनको</w>": 2879,
      "फे": 2880,
      "मंत्री</w>": 2881,
      "els</w>": 2882,
      "logy</w>": 2883,
      "writ": 2884,
      "यही</w>": 2885,
      "same</w>": 2886,
      "स्थित</w>": 2887,
      "case</w>": 2888,
      "कौ": 2889,
      "side</w>": 2890,
      "file</w>": 2891,
      "20</w>": 2892,
      "og": 2893,
      "pi": 2894,
      "विचार</w>": 2895,
      "विभिन्न</w>": 2896,
      "भव</w>": 2897,
      "system</w>": 2898,
      "ष्ठ": 2899,
      "फ़ाइल</w>": 2900,
      "cas": 2901,
      "अधीन</w>": 2902,
      "आई": 2903,
      "पड़": 2904,
      "अग": 2905,
      "ेक</w>": 2906,
      "import": 2907,
      "ices</w>": 2908,
      "As</w>": 2909,
      "जे</w>": 2910,
      "ass</w>": 2911,
      "ष्टि</w>": 2912,
      "adv": 2913,
      "समान</w>": 2914,
      "वित</w>": 2915,
      "पूर्व": 2916,
      "त्मक</w>": 2917,
      "जिसके</w>": 2918,
      "यम</w>": 2919,
      "ana</w>": 2920,
      "recei": 2921,
      "लू": 2922,
      "off": 2923,
      "लिक</w>": 2924,
      "ौद्": 2925,
      "दर": 2926,
      "संख्या</w>": 2927,
      "अनुसार</w>": 2928,
      "Ar": 2929,
      "पूरा</w>": 2930,
      "change</w>": 2931,
      "सन्": 2932,
      "ारा": 2933,
      "त्वपूर्ण</w>": 2934,
      "होंगे</w>": 2935,
      "den": 2936,
      "सामने</w>": 2937,
      "इसका</w>": 2938,
      "out": 2939,
      "ous": 2940,
      "सेवा</w>": 2941,
      "ंट</w>": 2942,
      "ouse</w>": 2943,
      "समु": 2944,
      "मार्ग</w>": 2945,
      "Then</w>": 2946,
      "फ़ि": 2947,
      "sul": 2948,
      "तरफ</w>": 2949,
      "respon": 2950,
      "den</w>": 2951,
      "cc": 2952,
      "गी": 2953,
      "ledge</w>": 2954,
      "ys</w>": 2955,
      "ways</w>": 2956,
      "both</w>": 2957,
      "हत</w>": 2958,
      "मद": 2959,
      "नेक</w>": 2960,
      "dep": 2961,
      "clo": 2962,
      "ven": 2963,
      "ef</w>": 2964,
      "अति": 2965,
      "speci": 2966,
      "हन</w>": 2967,
      "किता": 2968,
      "भा</w>": 2969,
      "Res": 2970,
      "गां": 2971,
      "stan": 2972,
      "organ": 2973,
      "संबंध</w>": 2974,
      "रू</w>": 2975,
      "यान</w>": 2976,
      "समू": 2977,
      "called</w>": 2978,
      "sci": 2979,
      "wards</w>": 2980,
      "विश्व": 2981,
      "वान</w>": 2982,
      "मुख</w>": 2983,
      ":%</w>": 2984,
      "Bha": 2985,
      "उसमें</w>": 2986,
      "etc</w>": 2987,
      "करे</w>": 2988,
      "another</w>": 2989,
      "No</w>": 2990,
      "छा": 2991,
      "घट": 2992,
      "अच्छा</w>": 2993,
      "देशों</w>": 2994,
      "साइ": 2995,
      "development</w>": 2996,
      "Uni": 2997,
      "things</w>": 2998,
      "bro": 2999,
      "नई</w>": 3000,
      "आपको</w>": 3001,
      "भाषा</w>": 3002,
      "घर</w>": 3003,
      "ency</w>": 3004,
      "संबंधित</w>": 3005,
      "इसी</w>": 3006,
      "दुनिया</w>": 3007,
      "educ": 3008,
      "ंत्र": 3009,
      "देते</w>": 3010,
      "क्स</w>": 3011,
      "long</w>": 3012,
      "पृ": 3013,
      "ten": 3014,
      "मीन</w>": 3015,
      "help</w>": 3016,
      "win": 3017,
      "क्षित</w>": 3018,
      "EN": 3019,
      "करेगा</w>": 3020,
      "known</w>": 3021,
      "आधार</w>": 3022,
      "wa": 3023,
      "लै": 3024,
      "न्त</w>": 3025,
      "tech": 3026,
      "ign</w>": 3027,
      "वर्ष": 3028,
      "whom</w>": 3029,
      "बाहर</w>": 3030,
      "अन": 3031,
      "णों</w>": 3032,
      "यो</w>": 3033,
      "yed</w>": 3034,
      "णा</w>": 3035,
      "सिं": 3036,
      "ort</w>": 3037,
      "तैयार</w>": 3038,
      "sible</w>": 3039,
      "econom": 3040,
      "आय</w>": 3041,
      "बड़े</w>": 3042,
      "vil": 3043,
      "उपलब्ध</w>": 3044,
      "ask</w>": 3045,
      "buil": 3046,
      "ined</w>": 3047,
      "च्च</w>": 3048,
      "nor</w>": 3049,
      "वाह</w>": 3050,
      "indeed</w>": 3051,
      "put</w>": 3052,
      "प्रत्येक</w>": 3053,
      "विक</w>": 3054,
      "चाहते</w>": 3055,
      "चार": 3056,
      "निश्चित</w>": 3057,
      "action</w>": 3058,
      "50</w>": 3059,
      "पानी</w>": 3060,
      "12</w>": 3061,
      "dic": 3062,
      "विषय</w>": 3063,
      "लेख": 3064,
      "without</w>": 3065,
      "सौ": 3066,
      "ंग्रे": 3067,
      "द्धि</w>": 3068,
      "धु": 3069,
      "inclu": 3070,
      "sou": 3071,
      "कल</w>": 3072,
      "commun": 3073,
      "times</w>": 3074,
      "महि": 3075,
      "came</w>": 3076,
      "त्त</w>": 3077,
      "What</w>": 3078,
      "nal</w>": 3079,
      "जारी</w>": 3080,
      "बन</w>": 3081,
      "body</w>": 3082,
      "tly</w>": 3083,
      "dren</w>": 3084,
      "knowledge</w>": 3085,
      "succ": 3086,
      "aff": 3087,
      "ीक</w>": 3088,
      "तुम्हारी</w>": 3089,
      "जग": 3090,
      "फै": 3091,
      "three</w>": 3092,
      "bers</w>": 3093,
      "Mar": 3094,
      "National</w>": 3095,
      "ple</w>": 3096,
      "ack": 3097,
      "she</w>": 3098,
      "भर</w>": 3099,
      "प्रया": 3100,
      "ority</w>": 3101,
      "पीछ": 3102,
      "अध्य": 3103,
      "शक्ति</w>": 3104,
      "अवसर</w>": 3105,
      "issu": 3106,
      "ins</w>": 3107,
      "स्तर</w>": 3108,
      "काल</w>": 3109,
      "स्वय": 3110,
      "लड़": 3111,
      "ently</w>": 3112,
      "नाओं</w>": 3113,
      "religi": 3114,
      "क्ति": 3115,
      "ral</w>": 3116,
      "निश्चय</w>": 3117,
      "ides</w>": 3118,
      "सां": 3119,
      "ia</w>": 3120,
      "बनाने</w>": 3121,
      "हरा": 3122,
      "cial</w>": 3123,
      "ges</w>": 3124,
      "पूरी</w>": 3125,
      "sk": 3126,
      "nec": 3127,
      "प्रार": 3128,
      "Mus": 3129,
      "line</w>": 3130,
      "ma</w>": 3131,
      "भो": 3132,
      "Mess": 3133,
      "pun": 3134,
      "ration</w>": 3135,
      "vir": 3136,
      "RE": 3137,
      "झु": 3138,
      "दूर</w>": 3139,
      "केन्": 3140,
      "different</w>": 3141,
      "tle</w>": 3142,
      "state</w>": 3143,
      "ष्ठ</w>": 3144,
      "crip": 3145,
      "हरी</w>": 3146,
      "pra": 3147,
      "means</w>": 3148,
      "inf": 3149,
      "ired</w>": 3150,
      "progra": 3151,
      "uni": 3152,
      "much</w>": 3153,
      "ज्या": 3154,
      "प्रौद्": 3155,
      "contin": 3156,
      "'%</w>": 3157,
      "bre": 3158,
      "found</w>": 3159,
      "ह्": 3160,
      "ister</w>": 3161,
      "Au": 3162,
      "पा</w>": 3163,
      "सान</w>": 3164,
      "धी": 3165,
      "inc": 3166,
      "pass": 3167,
      "cr": 3168,
      "lease</w>": 3169,
      "श्रे": 3170,
      "बता": 3171,
      "आपके</w>": 3172,
      "eth</w>": 3173,
      "prob": 3174,
      "righ": 3175,
      "लगे</w>": 3176,
      "information</w>": 3177,
      "रखा</w>": 3178,
      "ss</w>": 3179,
      "ount</w>": 3180,
      "tice</w>": 3181,
      "रती</w>": 3182,
      "र्ड</w>": 3183,
      "langu": 3184,
      "nam": 3185,
      "ंतु</w>": 3186,
      "अत्य": 3187,
      "गै": 3188,
      "स्थापित</w>": 3189,
      "अज़ा": 3190,
      "Do</w>": 3191,
      "OF</w>": 3192,
      "ror</w>": 3193,
      "लना</w>": 3194,
      "incre": 3195,
      "प्रौद्योगि": 3196,
      "तीन</w>": 3197,
      "तिहा": 3198,
      "taken</w>": 3199,
      "Shri</w>": 3200,
      "रण</w>": 3201,
      "लाभ</w>": 3202,
      "want</w>": 3203,
      "हिं": 3204,
      "जब": 3205,
      "खंड</w>": 3206,
      "बा</w>": 3207,
      "ष्य</w>": 3208,
      "लते</w>": 3209,
      "प्रक्रिया</w>": 3210,
      "vis": 3211,
      "typ": 3212,
      "नीति</w>": 3213,
      "ders</w>": 3214,
      "ध्यम</w>": 3215,
      "अंतर": 3216,
      "सामान्य</w>": 3217,
      "खुदा</w>": 3218,
      "विश्व</w>": 3219,
      "ज़ा</w>": 3220,
      "eff": 3221,
      "लौ": 3222,
      "ere": 3223,
      "परी": 3224,
      "grou": 3225,
      "मगर</w>": 3226,
      "ऊपर</w>": 3227,
      "On</w>": 3228,
      "ben": 3229,
      "लोक": 3230,
      "आई</w>": 3231,
      "गये</w>": 3232,
      "वि</w>": 3233,
      "लु": 3234,
      "लॉ": 3235,
      "unto</w>": 3236,
      "फी</w>": 3237,
      "ond</w>": 3238,
      "Hind": 3239,
      "heav": 3240,
      "करने": 3241,
      "नता</w>": 3242,
      "जरू": 3243,
      "फो": 3244,
      "र्ट</w>": 3245,
      "शत</w>": 3246,
      "Sa": 3247,
      "ham": 3248,
      "पार</w>": 3249,
      "उठा": 3250,
      "लती</w>": 3251,
      "account</w>": 3252,
      "अज़ाब</w>": 3253,
      "That</w>": 3254,
      "Po": 3255,
      "स्वयं</w>": 3256,
      "रात</w>": 3257,
      "ठीक</w>": 3258,
      "onal</w>": 3259,
      "अनेक</w>": 3260,
      "स्त्र": 3261,
      "Man": 3262,
      "अंतर्": 3263,
      "period</w>": 3264,
      "men": 3265,
      "earch</w>": 3266,
      "ishment</w>": 3267,
      "प्रणा": 3268,
      "any": 3269,
      "My</w>": 3270,
      "मुख्य</w>": 3271,
      "चाहता</w>": 3272,
      "र्थ</w>": 3273,
      "institu": 3274,
      "sist": 3275,
      "sive</w>": 3276,
      "hal": 3277,
      "तुम्हारा</w>": 3278,
      "ग्": 3279,
      "बनाया</w>": 3280,
      "sub</w>": 3281,
      "बल</w>": 3282,
      "''</w>": 3283,
      "nor": 3284,
      "पि</w>": 3285,
      "women</w>": 3286,
      "sure</w>": 3287,
      "ber": 3288,
      "भवन</w>": 3289,
      "वाय": 3290,
      "inst": 3291,
      "तंत्र</w>": 3292,
      "शुरू</w>": 3293,
      "महत्वपूर्ण</w>": 3294,
      "Del": 3295,
      "वज": 3296,
      "happ": 3297,
      "घो": 3298,
      "हेतु</w>": 3299,
      "आत्": 3300,
      "lev": 3301,
      "gg": 3302,
      "ural</w>": 3303,
      "दर्शन</w>": 3304,
      "षि</w>": 3305,
      "let</w>": 3306,
      "ख़ि": 3307,
      "बढ़ा": 3308,
      "30</w>": 3309,
      "over": 3310,
      "15</w>": 3311,
      "टो": 3312,
      "truth</w>": 3313,
      "अर्थ": 3314,
      "thy</w>": 3315,
      "एस</w>": 3316,
      "ental</w>": 3317,
      "देह</w>": 3318,
      "सर्व": 3319,
      "व्यवस्था</w>": 3320,
      "पढ़": 3321,
      "क़ा": 3322,
      "मि</w>": 3323,
      "leg": 3324,
      "वादी</w>": 3325,
      "dom</w>": 3326,
      "high": 3327,
      "ca": 3328,
      "परिणा": 3329,
      "मैंने</w>": 3330,
      "देखा</w>": 3331,
      "क्षेत्रों</w>": 3332,
      "created</w>": 3333,
      "विज्ञान</w>": 3334,
      "tor": 3335,
      "avail": 3336,
      "आर्थ": 3337,
      "धिक</w>": 3338,
      "रह</w>": 3339,
      "सके</w>": 3340,
      "AT": 3341,
      "जिसने</w>": 3342,
      "Say</w>": 3343,
      "शरी": 3344,
      "प्रतिशत</w>": 3345,
      "cannot</w>": 3346,
      "fri": 3347,
      "आदि</w>": 3348,
      "SI": 3349,
      "These</w>": 3350,
      "ंस</w>": 3351,
      "बेशक</w>": 3352,
      "राज्य": 3353,
      "व्य</w>": 3354,
      "exam": 3355,
      "dist": 3356,
      "For": 3357,
      "ima": 3358,
      "going</w>": 3359,
      "यहां</w>": 3360,
      "देना</w>": 3361,
      "dition</w>": 3362,
      "196": 3363,
      "क्षि": 3364,
      "mission</w>": 3365,
      "company</w>": 3366,
      "ult</w>": 3367,
      "Bo": 3368,
      "ining</w>": 3369,
      "करेंगे</w>": 3370,
      "मौजू": 3371,
      "message</w>": 3372,
      "नीचे</w>": 3373,
      "lim": 3374,
      "cent</w>": 3375,
      "पीछे</w>": 3376,
      "except</w>": 3377,
      "बिना</w>": 3378,
      "11</w>": 3379,
      "44</w>": 3380,
      "tal</w>": 3381,
      "ारि": 3382,
      "हिस्": 3383,
      "stud": 3384,
      "Name</w>": 3385,
      "view</w>": 3386,
      "become</w>": 3387,
      "find</w>": 3388,
      "चुन": 3389,
      "उल्": 3390,
      "बैंक</w>": 3391,
      "ember</w>": 3392,
      "days</w>": 3393,
      "ths</w>": 3394,
      "important</w>": 3395,
      "किताब</w>": 3396,
      "gress</w>": 3397,
      "आर्थिक</w>": 3398,
      "Li": 3399,
      "cro": 3400,
      "लगा</w>": 3401,
      "ज़मीन</w>": 3402,
      "ann": 3403,
      "सुवि": 3404,
      "ete</w>": 3405,
      "प्रौद्योगिकी</w>": 3406,
      "date</w>": 3407,
      "Pra": 3408,
      "loy": 3409,
      "ध्यान</w>": 3410,
      "them": 3411,
      "ces</w>": 3412,
      "busin": 3413,
      "यात</w>": 3414,
      "stric": 3415,
      "जिसका</w>": 3416,
      "तक": 3417,
      "story</w>": 3418,
      "ंच": 3419,
      "एक": 3420,
      "एस": 3421,
      "medi": 3422,
      "ters</w>": 3423,
      "ented</w>": 3424,
      "dow</w>": 3425,
      "ii</w>": 3426,
      "हाथ</w>": 3427,
      "गण": 3428,
      "सित</w>": 3429,
      "public</w>": 3430,
      "present</w>": 3431,
      "हिन्": 3432,
      "les</w>": 3433,
      "ध्": 3434,
      "च्चे</w>": 3435,
      "ze</w>": 3436,
      "लाया</w>": 3437,
      "विश्वास</w>": 3438,
      "today</w>": 3439,
      "tific": 3440,
      "दिष्ट</w>": 3441,
      "अधिकार</w>": 3442,
      "उच्च</w>": 3443,
      "chang": 3444,
      "surely</w>": 3445,
      "establ": 3446,
      "add": 3447,
      "plan": 3448,
      "word</w>": 3449,
      "लेकर</w>": 3450,
      "लक्ष": 3451,
      "गयी</w>": 3452,
      "स्ते</w>": 3453,
      "AN": 3454,
      "Sp": 3455,
      "किन्तु</w>": 3456,
      "माण": 3457,
      "मदद</w>": 3458,
      "ail</w>": 3459,
      "रिक</w>": 3460,
      "धरती</w>": 3461,
      "income</w>": 3462,
      "स्पष्ट</w>": 3463,
      "ta</w>": 3464,
      "त्</w>": 3465,
      "clear</w>": 3466,
      "चौ": 3467,
      "eting</w>": 3468,
      "जबकि</w>": 3469,
      "शासन</w>": 3470,
      "नि</w>": 3471,
      "curr": 3472,
      "ove</w>": 3473,
      "198": 3474,
      "ready</w>": 3475,
      "never</w>": 3476,
      "ali": 3477,
      "offic": 3478,
      "?\"</w>": 3479,
      "ोल्डर</w>": 3480,
      "बेह": 3481,
      "children</w>": 3482,
      "ead</w>": 3483,
      "fear</w>": 3484,
      "अमे": 3485,
      "नित</w>": 3486,
      "चल</w>": 3487,
      "ered</w>": 3488,
      "kind</w>": 3489,
      "best</w>": 3490,
      "ands</w>": 3491,
      "sing</w>": 3492,
      "dit</w>": 3493,
      "आद": 3494,
      "though</w>": 3495,
      "ठि": 3496,
      "प्रमुख</w>": 3497,
      "Musli": 3498,
      "kes</w>": 3499,
      "जार</w>": 3500,
      "तौर</w>": 3501,
      "पिछ": 3502,
      "अतः</w>": 3503,
      "mor": 3504,
      "तो": 3505,
      "जन्": 3506,
      "कारों</w>": 3507,
      "शित</w>": 3508,
      "वों</w>": 3509,
      "दिए</w>": 3510,
      "इसकी</w>": 3511,
      "कंपनी</w>": 3512,
      "मता</w>": 3513,
      "माध्यम</w>": 3514,
      "गति</w>": 3515,
      "read</w>": 3516,
      "tax</w>": 3517,
      "applic": 3518,
      "government</w>": 3519,
      "विशेष": 3520,
      "Dev": 3521,
      "अच्छे</w>": 3522,
      "RB</w>": 3523,
      "तनी</w>": 3524,
      "see": 3525,
      "कृषि</w>": 3526,
      "बन": 3527,
      "लाने</w>": 3528,
      "Minister</w>": 3529,
      "दारी</w>": 3530,
      "within</w>": 3531,
      "nology</w>": 3532,
      "ale</w>": 3533,
      "सभा</w>": 3534,
      "ग्रह</w>": 3535,
      "art</w>": 3536,
      "होकर</w>": 3537,
      "दें</w>": 3538,
      "ही": 3539,
      "hy": 3540,
      "धान": 3541,
      "Pri": 3542,
      "jud": 3543,
      "ences</w>": 3544,
      "themselves</w>": 3545,
      "ket</w>": 3546,
      "bor": 3547,
      "ool</w>": 3548,
      "लाए</w>": 3549,
      "अमेरि": 3550,
      "द्रीय</w>": 3551,
      "क्यों</w>": 3552,
      "various</w>": 3553,
      "नियंत्र": 3554,
      "लाग": 3555,
      "विंड": 3556,
      "जिक</w>": 3557,
      "निर्दिष्ट</w>": 3558,
      "done</w>": 3559,
      "चाहे</w>": 3560,
      "ged</w>": 3561,
      "fur": 3562,
      "समर्थ": 3563,
      "business</w>": 3564,
      "fy</w>": 3565,
      "र्ष": 3566,
      "मेरा</w>": 3567,
      "मूल</w>": 3568,
      "bed</w>": 3569,
      "ends</w>": 3570,
      "main</w>": 3571,
      "wit": 3572,
      "stor": 3573,
      "evil</w>": 3574,
      "light</w>": 3575,
      "icy</w>": 3576,
      "Per": 3577,
      "इनकार</w>": 3578,
      "olution</w>": 3579,
      "पन्न</w>": 3580,
      "last</w>": 3581,
      "थो": 3582,
      "मर्": 3583,
      "ular</w>": 3584,
      "भग</w>": 3585,
      "others</w>": 3586,
      "row</w>": 3587,
      "तुमसे</w>": 3588,
      "लेख</w>": 3589,
      "os": 3590,
      "ज्यादा</w>": 3591,
      "ably</w>": 3592,
      "पश्चा": 3593,
      "rit": 3594,
      "विधान</w>": 3595,
      "मार": 3596,
      "hol": 3597,
      "उत्तर</w>": 3598,
      "due</w>": 3599,
      "भूमि</w>": 3600,
      "धे</w>": 3601,
      "धर्म</w>": 3602,
      "amount</w>": 3603,
      "शि</w>": 3604,
      "सारे</w>": 3605,
      "क़ौ": 3606,
      "रिक्त</w>": 3607,
      "रखते</w>": 3608,
      "better</w>": 3609,
      "कहीं</w>": 3610,
      "निम्": 3611,
      "पर्या": 3612,
      "मूल्य</w>": 3613,
      "बे</w>": 3614,
      "स्ति": 3615,
      "सरी</w>": 3616,
      "आका": 3617,
      "consider": 3618,
      "ren": 3619,
      "ines</w>": 3620,
      "bur": 3621,
      "del": 3622,
      "human</w>": 3623,
      "प्रणाली</w>": 3624,
      "ल्ली</w>": 3625,
      "समस्": 3626,
      "लगभग</w>": 3627,
      "ements</w>": 3628,
      "ination</w>": 3629,
      "tural</w>": 3630,
      "आने</w>": 3631,
      "दू</w>": 3632,
      "ris": 3633,
      "New</w>": 3634,
      "htt": 3635,
      "pay": 3636,
      "प्रि": 3637,
      "तार</w>": 3638,
      "जनता</w>": 3639,
      "कार्यक्रम</w>": 3640,
      "ँगे</w>": 3641,
      "ron": 3642,
      "रचना</w>": 3643,
      "जानकारी</w>": 3644,
      "निशा": 3645,
      "क़ी": 3646,
      "ery</w>": 3647,
      "play</w>": 3648,
      "अर्थ</w>": 3649,
      "concer": 3650,
      "तरी": 3651,
      "contro": 3652,
      "संगठ": 3653,
      "द्ध": 3654,
      "197": 3655,
      "set": 3656,
      "ईमान": 3657,
      "काफी</w>": 3658,
      "beg": 3659,
      "शं": 3660,
      "too</w>": 3661,
      "rela": 3662,
      "25</w>": 3663,
      "ease</w>": 3664,
      "ंश</w>": 3665,
      "अवधि</w>": 3666,
      "poli": 3667,
      "पित</w>": 3668,
      "सै": 3669,
      "परा": 3670,
      "small</w>": 3671,
      "Ab": 3672,
      "plac": 3673,
      "अच्छी</w>": 3674,
      "ight</w>": 3675,
      "rought</w>": 3676,
      "अभी</w>": 3677,
      "कर्ता</w>": 3678,
      "समूह</w>": 3679,
      "ाई</w>": 3680,
      "लागू</w>": 3681,
      "विश्वविद्": 3682,
      "position</w>": 3683,
      "ures</w>": 3684,
      "जानता</w>": 3685,
      "सों</w>": 3686,
      "ribu": 3687,
      "जल</w>": 3688,
      "लू</w>": 3689,
      "त्रु": 3690,
      "परिवर्तन</w>": 3691,
      "ective</w>": 3692,
      "left</w>": 3693,
      "face</w>": 3694,
      "वहां</w>": 3695,
      "prof": 3696,
      "पर्क</w>": 3697,
      "list</w>": 3698,
      "heal": 3699,
      "ंद</w>": 3700,
      "गर्": 3701,
      "education</w>": 3702,
      "194": 3703,
      "कट</w>": 3704,
      "सामाजिक</w>": 3705,
      "grow": 3706,
      "देख</w>": 3707,
      "प्रती": 3708,
      "तू</w>": 3709,
      "cip": 3710,
      "पुरा": 3711,
      "Ser": 3712,
      "कोशि": 3713,
      "जैसा</w>": 3714,
      "प्रबंध": 3715,
      "त्रि": 3716,
      "शब्द</w>": 3717,
      "सल": 3718,
      "एन": 3719,
      "ones</w>": 3720,
      "available</w>": 3721,
      "राम</w>": 3722,
      "http</w>": 3723,
      "mul": 3724,
      "sions</w>": 3725,
      "मामले</w>": 3726,
      "arm": 3727,
      "रंग</w>": 3728,
      "जाय": 3729,
      "sit": 3730,
      "sc": 3731,
      "ारी": 3732,
      "ख्या": 3733,
      "ferred</w>": 3734,
      "कम": 3735,
      "ion</w>": 3736,
      "क़ि": 3737,
      "राशि</w>": 3738,
      "निस्": 3739,
      "सेवा": 3740,
      "जों</w>": 3741,
      "Lo": 3742,
      "वर्त": 3743,
      "ध्य</w>": 3744,
      "stat": 3745,
      "ended</w>": 3746,
      "पस</w>": 3747,
      "process</w>": 3748,
      "न्द</w>": 3749,
      "कला": 3750,
      "शील</w>": 3751,
      "hand</w>": 3752,
      "प्रस्तु": 3753,
      "lear": 3754,
      "van</w>": 3755,
      "मज": 3756,
      "फ़ोल्डर</w>": 3757,
      "One</w>": 3758,
      "rit</w>": 3759,
      "नाथ</w>": 3760,
      "देशी</w>": 3761,
      "large</w>": 3762,
      "versity</w>": 3763,
      "towards</w>": 3764,
      "Sch": 3765,
      "pen": 3766,
      "exist": 3767,
      "pop": 3768,
      "बराबर</w>": 3769,
      "आदेश</w>": 3770,
      "ious</w>": 3771,
      "सिवा</w>": 3772,
      "काम": 3773,
      "साल</w>": 3774,
      "):</w>": 3775,
      "कानू": 3776,
      "resul": 3777,
      "jee</w>": 3778,
      "आधार": 3779,
      "prot": 3780,
      "संस्था": 3781,
      "क़ु": 3782,
      "आया</w>": 3783,
      "eme</w>": 3784,
      "समाज</w>": 3785,
      "इस्": 3786,
      "करो": 3787,
      "नियों</w>": 3788,
      "igh": 3789,
      "poin": 3790,
      "जाएगी</w>": 3791,
      "र्फ</w>": 3792,
      "Book</w>": 3793,
      "mm": 3794,
      "AR": 3795,
      "lu": 3796,
      "appro": 3797,
      "tal": 3798,
      "bring</w>": 3799,
      "ट्टी</w>": 3800,
      "तने</w>": 3801,
      "law</w>": 3802,
      "समि": 3803,
      "ल्म</w>": 3804,
      "उसको</w>": 3805,
      "उद्योग</w>": 3806,
      "Wor": 3807,
      ":/": 3808,
      "ator</w>": 3809,
      "आवश्यक</w>": 3810,
      "लिखित</w>": 3811,
      "member</w>": 3812,
      "षित</w>": 3813,
      "ability</w>": 3814,
      "विधि</w>": 3815,
      "vo": 3816,
      "निर्ण": 3817,
      "डल</w>": 3818,
      "sto": 3819,
      "195": 3820,
      "enger</w>": 3821,
      "Central</w>": 3822,
      "ys": 3823,
      "न्य": 3824,
      "संदेह</w>": 3825,
      "high</w>": 3826,
      "टों</w>": 3827,
      "हाल</w>": 3828,
      "साहि": 3829,
      "reas": 3830,
      "Gu": 3831,
      "जोड़": 3832,
      "af": 3833,
      "सिक</w>": 3834,
      "func": 3835,
      "boo": 3836,
      "योजन</w>": 3837,
      "प्रभाव</w>": 3838,
      "दाय": 3839,
      "language</w>": 3840,
      "Raj": 3841,
      "स्वीकार</w>": 3842,
      "An</w>": 3843,
      "son</w>": 3844,
      "stand</w>": 3845,
      "क्षमता</w>": 3846,
      "जानते</w>": 3847,
      "heavens</w>": 3848,
      "deli": 3849,
      "Indeed</w>": 3850,
      "ंक": 3851,
      "जगह</w>": 3852,
      "Pr": 3853,
      "ंगी</w>": 3854,
      "ब्र": 3855,
      "प्रयास</w>": 3856,
      "कोर्इ</w>": 3857,
      "ques": 3858,
      "उदा": 3859,
      "window</w>": 3860,
      "value</w>": 3861,
      "सुरक्षा</w>": 3862,
      "क्षा": 3863,
      "नए</w>": 3864,
      "Cha": 3865,
      "क़ौम</w>": 3866,
      "पूछ": 3867,
      "डियो</w>": 3868,
      "रहने</w>": 3869,
      "दिर</w>": 3870,
      "जिससे</w>": 3871,
      "ession</w>": 3872,
      "तू": 3873,
      "tog": 3874,
      "ंजी</w>": 3875,
      "nation</w>": 3876,
      "://</w>": 3877,
      "रस्": 3878,
      "मार</w>": 3879,
      "thou</w>": 3880,
      "गं": 3881,
      "again</w>": 3882,
      "brought</w>": 3883,
      "ंगा</w>": 3884,
      "पार्": 3885,
      "elec": 3886,
      "कल्प</w>": 3887,
      "Rs</w>": 3888,
      "seen</w>": 3889,
      "pose</w>": 3890,
      "Inter": 3891,
      "tries</w>": 3892,
      "und": 3893,
      "Isla": 3894,
      "punishment</w>": 3895,
      "नल</w>": 3896,
      "pe</w>": 3897,
      "remo": 3898,
      "ances</w>": 3899,
      "¤¾</w>": 3900,
      "ars</w>": 3901,
      "ेगी</w>": 3902,
      "tes</w>": 3903,
      "fiel": 3904,
      "dest": 3905,
      "kher": 3906,
      "धित</w>": 3907,
      "स्ट</w>": 3908,
      "बच्च": 3909,
      "द्य": 3910,
      "धियों</w>": 3911,
      "Dis": 3912,
      "family</w>": 3913,
      "आवश्यकता</w>": 3914,
      "social</w>": 3915,
      "तुमने</w>": 3916,
      "Ver": 3917,
      "full</w>": 3918,
      "शों</w>": 3919,
      "divid": 3920,
      "ening</w>": 3921,
      "नन</w>": 3922,
      "पुर</w>": 3923,
      "एम": 3924,
      "him": 3925,
      "together</w>": 3926,
      "nat": 3927,
      "अनुसं": 3928,
      "निष्": 3929,
      "रहते</w>": 3930,
      "15": 3931,
      "outh</w>": 3932,
      "तिम</w>": 3933,
      "पक</w>": 3934,
      "allow": 3935,
      "न्</w>": 3936,
      "kherjee</w>": 3937,
      "यं": 3938,
      "ick</w>": 3939,
      "गें</w>": 3940,
      "वक्त</w>": 3941,
      "Who</w>": 3942,
      "Ban": 3943,
      "गे": 3944,
      "डा</w>": 3945,
      "standing</w>": 3946,
      "employ": 3947,
      "prin": 3948,
      "early</w>": 3949,
      "ey": 3950,
      "clause</w>": 3951,
      "think</w>": 3952,
      "ढा": 3953,
      "compu": 3954,
      "आए</w>": 3955,
      "फर": 3956,
      "उम्": 3957,
      "मूसा</w>": 3958,
      "जवा": 3959,
      "proper": 3960,
      "धारण</w>": 3961,
      "ऋण</w>": 3962,
      "नया</w>": 3963,
      "अतिरिक्त</w>": 3964,
      "14</w>": 3965,
      "call</w>": 3966,
      "उत्पादन</w>": 3967,
      "associ": 3968,
      "अंतर्गत</w>": 3969,
      "सही</w>": 3970,
      "something</w>": 3971,
      "ized</w>": 3972,
      "लेने</w>": 3973,
      "book</w>": 3974,
      "कहने</w>": 3975,
      "ills</w>": 3976,
      "isions</w>": 3977,
      "cause</w>": 3978,
      "open</w>": 3979,
      "चुके</w>": 3980,
      "विभाग</w>": 3981,
      "उपा": 3982,
      "war</w>": 3983,
      "pow": 3984,
      "service</w>": 3985,
      "ज़ी</w>": 3986,
      "words</w>": 3987,
      "छु": 3988,
      "turned</w>": 3989,
      "maj": 3990,
      "कृतिक</w>": 3991,
      "लाई</w>": 3992,
      "¥</w>": 3993,
      "छोड़</w>": 3994,
      "til</w>": 3995,
      "true</w>": 3996,
      "ख़ा": 3997,
      "रखने</w>": 3998,
      "क्तियों</w>": 3999,
      "ंगा": 4000,
      "Am": 4001,
      "वर्ग</w>": 4002,
      "बह": 4003,
      "गति": 4004,
      "Rash": 4005,
      "Ta": 4006,
      "fully</w>": 4007,
      "ential</w>": 4008,
      "भाव</w>": 4009,
      "urity</w>": 4010,
      "fic</w>": 4011,
      "Bhavan</w>": 4012,
      "यातना</w>": 4013,
      "mind</w>": 4014,
      "wea": 4015,
      "पश्चि": 4016,
      "वाई</w>": 4017,
      "nov": 4018,
      "लाल</w>": 4019,
      "nic</w>": 4020,
      "tors</w>": 4021,
      "विशि": 4022,
      "free</w>": 4023,
      "respect</w>": 4024,
      "वास्तव</w>": 4025,
      "मनु": 4026,
      "he": 4027,
      "stra": 4028,
      "लकर</w>": 4029,
      "यामत</w>": 4030,
      "द्धा": 4031,
      "conn": 4032,
      "roo": 4033,
      "नाग": 4034,
      "tee</w>": 4035,
      "हुक्": 4036,
      "jects</w>": 4037,
      "राह</w>": 4038,
      "yer</w>": 4039,
      "Vi": 4040,
      "ened</w>": 4041,
      "उद्दे": 4042,
      "वित्": 4043,
      "pati</w>": 4044,
      "villa": 4045,
      "16</w>": 4046,
      "यात्रा</w>": 4047,
      "every": 4048,
      "छि": 4049,
      "फल</w>": 4050,
      "द्य</w>": 4051,
      "भावना</w>": 4052,
      "sol": 4053,
      "हाला": 4054,
      "मर": 4055,
      "दम</w>": 4056,
      "ls</w>": 4057,
      "नही</w>": 4058,
      "off</w>": 4059,
      "TH": 4060,
      "बद्ध</w>": 4061,
      "यल</w>": 4062,
      "han</w>": 4063,
      "Amer": 4064,
      "टक</w>": 4065,
      "four</w>": 4066,
      "अनुसंधान</w>": 4067,
      "फू": 4068,
      "support</w>": 4069,
      "publ": 4070,
      "mad</w>": 4071,
      "matter</w>": 4072,
      "सिर्फ</w>": 4073,
      "वर्षों</w>": 4074,
      "Americ": 4075,
      "माना</w>": 4076,
      "na</w>": 4077,
      "कूल</w>": 4078,
      "gen": 4079,
      "सुन": 4080,
      "point</w>": 4081,
      "जिन्हें</w>": 4082,
      "ti</w>": 4083,
      "dly</w>": 4084,
      "पड़े</w>": 4085,
      "पक्ष": 4086,
      "manag": 4087,
      "वर्तमान</w>": 4088,
      "नत</w>": 4089,
      "वृत्": 4090,
      "ati": 4091,
      "कला</w>": 4092,
      "चुका</w>": 4093,
      "provided</w>": 4094,
      "प्रधान": 4095,
      "head</w>": 4096,
      "data</w>": 4097,
      "चन</w>": 4098,
      "सफल</w>": 4099,
      "nature</w>": 4100,
      "आकार</w>": 4101,
      "economic</w>": 4102,
      "उपधारा</w>": 4103,
      "ateg": 4104,
      "ource</w>": 4105,
      "gave</w>": 4106,
      "bir": 4107,
      "ड्": 4108,
      "ala</w>": 4109,
      "संपर्क</w>": 4110,
      "gm</w>": 4111,
      "जान</w>": 4112,
      "छोड़": 4113,
      "dou": 4114,
      "site</w>": 4115,
      "कौन</w>": 4116,
      "ai</w>": 4117,
      "might</w>": 4118,
      "लोक</w>": 4119,
      "प्ति</w>": 4120,
      "charac": 4121,
      "प्रदेश</w>": 4122,
      "area</w>": 4123,
      "जमा</w>": 4124,
      "Rashtra": 4125,
      "depend": 4126,
      "स्तु</w>": 4127,
      "structure</w>": 4128,
      "आख़ि": 4129,
      "Your</w>": 4130,
      "already</w>": 4131,
      "कम्": 4132,
      "parti": 4133,
      "अधिकारी</w>": 4134,
      "इतिहा": 4135,
      "हमारा</w>": 4136,
      "Sel": 4137,
      "Sub": 4138,
      "So": 4139,
      "्रो": 4140,
      "far</w>": 4141,
      "दक्षि": 4142,
      "sion": 4143,
      "based</w>": 4144,
      "ji</w>": 4145,
      "दाय</w>": 4146,
      "स्वास्थ": 4147,
      "दूसरी</w>": 4148,
      "जह": 4149,
      "ext": 4150,
      "ah</w>": 4151,
      "death</w>": 4152,
      "acy</w>": 4153,
      "दुर्": 4154,
      "हे</w>": 4155,
      "Gand": 4156,
      "rep": 4157,
      "मुद्र": 4158,
      "यक़ी": 4159,
      "Gener": 4160,
      "promis": 4161,
      "डिया</w>": 4162,
      "partic": 4163,
      "ization</w>": 4164,
      "ster</w>": 4165,
      "चै": 4166,
      "group</w>": 4167,
      "half</w>": 4168,
      "पहचा": 4169,
      "signs</w>": 4170,
      "Delhi</w>": 4171,
      "ling</w>": 4172,
      "टल</w>": 4173,
      "युद्ध</w>": 4174,
      "तुमको</w>": 4175,
      "whole</w>": 4176,
      "Those</w>": 4177,
      "liter": 4178,
      "क्षम</w>": 4179,
      "सहयोग</w>": 4180,
      "ours</w>": 4181,
      "परियोजना</w>": 4182,
      "vious</w>": 4183,
      "ury</w>": 4184,
      "Bri": 4185,
      "कल्प": 4186,
      "विक": 4187,
      "prac": 4188,
      "भाई</w>": 4189,
      "भूमि": 4190,
      "नाएं</w>": 4191,
      "व्यापार</w>": 4192,
      "aw": 4193,
      "liam": 4194,
      "chi": 4195,
      "वहाँ</w>": 4196,
      "उद्देश्य</w>": 4197,
      "hab": 4198,
      "Rashtrapati</w>": 4199,
      "took</w>": 4200,
      "dom": 4201,
      "ht": 4202,
      "ublic</w>": 4203,
      "services</w>": 4204,
      "Co": 4205,
      "तरा": 4206,
      "irs</w>": 4207,
      "क्रम": 4208,
      "interest</w>": 4209,
      "non</w>": 4210,
      "प्रशि": 4211,
      "र्च</w>": 4212,
      "gri": 4213,
      "निर्णय</w>": 4214,
      "countries</w>": 4215,
      "स्तान</w>": 4216,
      "अस": 4217,
      "DI": 4218,
      "conc": 4219,
      "निवा": 4220,
      "थीं</w>": 4221,
      "following</w>": 4222,
      "return</w>": 4223,
      "निर": 4224,
      "हुक्म</w>": 4225,
      "वस्तु</w>": 4226,
      "Op": 4227,
      "निर्धारित</w>": 4228,
      "type</w>": 4229,
      "रिश्": 4230,
      "क्रिया": 4231,
      "night</w>": 4232,
      "झुठ": 4233,
      "above</w>": 4234,
      "hold</w>": 4235,
      "making</w>": 4236,
      "समझ</w>": 4237,
      "ग्राम</w>": 4238,
      "level</w>": 4239,
      "To": 4240,
      "दगी</w>": 4241,
      "bal</w>": 4242,
      "entation</w>": 4243,
      "including</w>": 4244,
      "न्यायालय</w>": 4245,
      "सदस्य</w>": 4246,
      "रोध</w>": 4247,
      "giving</w>": 4248,
      "हमे": 4249,
      "लाम</w>": 4250,
      "inal</w>": 4251,
      "दिल्ली</w>": 4252,
      "Sing": 4253,
      "अंग्रे": 4254,
      "परन्तु</w>": 4255,
      "नव": 4256,
      "ference</w>": 4257,
      "UR": 4258,
      "मानव</w>": 4259,
      "कट": 4260,
      "हरण</w>": 4261,
      "himself</w>": 4262,
      "little</w>": 4263,
      "दृष्टि</w>": 4264,
      "कर्म": 4265,
      "रु</w>": 4266,
      "food</w>": 4267,
      "ENT</w>": 4268,
      "जित</w>": 4269,
      "ोर</w>": 4270,
      "areas</w>": 4271,
      "tory</w>": 4272,
      "¤</w>": 4273,
      "using</w>": 4274,
      "सम्बन्": 4275,
      "few</w>": 4276,
      "streng": 4277,
      "प्रधानमंत्री</w>": 4278,
      "अला": 4279,
      "provide</w>": 4280,
      "अपे": 4281,
      "मुसल": 4282,
      "रुप": 4283,
      "पालन</w>": 4284,
      "स्वास्थ्य</w>": 4285,
      "ith": 4286,
      "पाद": 4287,
      "ched</w>": 4288,
      "नै": 4289,
      "rate</w>": 4290,
      "शरीर</w>": 4291,
      "सीमा</w>": 4292,
      "किस</w>": 4293,
      "post": 4294,
      "जिनके</w>": 4295,
      "जें</w>": 4296,
      "थम</w>": 4297,
      "ancial</w>": 4298,
      "kgm</w>": 4299,
      "गम</w>": 4300,
      "¤°</w>": 4301,
      "देखते</w>": 4302,
      "हमेशा</w>": 4303,
      "having</w>": 4304,
      "लाइन</w>": 4305,
      "lies</w>": 4306,
      "रता</w>": 4307,
      "what": 4308,
      "प्रश्": 4309,
      "छोटे</w>": 4310,
      "बेहतर</w>": 4311,
      "coll": 4312,
      "benef": 4313,
      "Sec": 4314,
      "इतिहास</w>": 4315,
      "सुधार</w>": 4316,
      "ग्री</w>": 4317,
      "goo": 4318,
      "सार्": 4319,
      "देगा</w>": 4320,
      "fre": 4321,
      "प्रस्तुत</w>": 4322,
      "झा": 4323,
      "मंत्रा": 4324,
      "tation</w>": 4325,
      "विश्वविद्यालय</w>": 4326,
      "बच्चों</w>": 4327,
      "संसा": 4328,
      "केंद्र</w>": 4329,
      "पक": 4330,
      "वास्ते</w>": 4331,
      "संर": 4332,
      "पोर्ट</w>": 4333,
      "possible</w>": 4334,
      "एक्": 4335,
      "बनाए</w>": 4336,
      "ब्रि": 4337,
      "दिल</w>": 4338,
      "त्रता</w>": 4339,
      "lion</w>": 4340,
      "love</w>": 4341,
      "initi": 4342,
      "हक़</w>": 4343,
      "अमेरिका</w>": 4344,
      "लक</w>": 4345,
      "until</w>": 4346,
      "निर्धारण</w>": 4347,
      "Rec": 4348,
      "ER": 4349,
      "necess": 4350,
      "policy</w>": 4351,
      "still</w>": 4352,
      "Jo": 4353,
      "guid": 4354,
      "विकसित</w>": 4355,
      "members</w>": 4356,
      "look</w>": 4357,
      "क़्": 4358,
      "around</w>": 4359,
      "ately</w>": 4360,
      "individ": 4361,
      "ker</w>": 4362,
      "योजित</w>": 4363,
      "वस्तु": 4364,
      "invest": 4365,
      "ples</w>": 4366,
      "operation</w>": 4367,
      "fel": 4368,
      "णन</w>": 4369,
      "परिणाम</w>": 4370,
      "deeds</w>": 4371,
      "rul": 4372,
      "कैसे</w>": 4373,
      "घु": 4374,
      "विदेशी</w>": 4375,
      "वृद्धि</w>": 4376,
      "continu": 4377,
      "ger</w>": 4378,
      "ीकरण</w>": 4379,
      "कित्": 4380,
      "आग</w>": 4381,
      "चू": 4382,
      "capital</w>": 4383,
      "industri": 4384,
      "क्ता</w>": 4385,
      "प्रमाण": 4386,
      "जिन्होंने</w>": 4387,
      "संबंधी</w>": 4388,
      "desh</w>": 4389,
      "र्ष</w>": 4390,
      "सिंह</w>": 4391,
      "whether</w>": 4392,
      "PRE": 4393,
      "house</w>": 4394,
      "ख़ु": 4395,
      "Sha": 4396,
      "increas": 4397,
      "minist": 4398,
      "faith</w>": 4399,
      "तहत</w>": 4400,
      "बाद": 4401,
      "pati": 4402,
      "प्रस्ता": 4403,
      "अग्र": 4404,
      "ilities</w>": 4405,
      "viron": 4406,
      "certain</w>": 4407,
      "ची</w>": 4408,
      "don</w>": 4409,
      "संस्थान</w>": 4410,
      "अफ": 4411,
      "ough</w>": 4412,
      "fact</w>": 4413,
      "worship</w>": 4414,
      "society</w>": 4415,
      "Me": 4416,
      "follow</w>": 4417,
      "ंति</w>": 4418,
      "orig": 4419,
      "tual</w>": 4420,
      "tish</w>": 4421,
      "Cour": 4422,
      "स्‍": 4423,
      "ously</w>": 4424,
      "tom": 4425,
      "oura": 4426,
      "fer</w>": 4427,
      "bar": 4428,
      "वत</w>": 4429,
      "सार": 4430,
      "reg": 4431,
      "वीं</w>": 4432,
      "always</w>": 4433,
      "occas": 4434,
      "स्थानीय</w>": 4435,
      "posed</w>": 4436,
      "टि</w>": 4437,
      "ret": 4438,
      "राष्ट्र</w>": 4439,
      "contain": 4440,
      "प्रथम</w>": 4441,
      "तरण</w>": 4442,
      "CO": 4443,
      "achi": 4444,
      "whose</w>": 4445,
      "13</w>": 4446,
      "Col": 4447,
      "ak</w>": 4448,
      "sector</w>": 4449,
      "ath": 4450,
      "Pe": 4451,
      "ve": 4452,
      "dr": 4453,
      "meas": 4454,
      "अक्": 4455,
      "expres": 4456,
      "tainly</w>": 4457,
      "चारों</w>": 4458,
      "believed</w>": 4459,
      "पत्ति</w>": 4460,
      "ab</w>": 4461,
      "formed</w>": 4462,
      "States</w>": 4463,
      "स्क</w>": 4464,
      "five</w>": 4465,
      "टै": 4466,
      "hon": 4467,
      "मौजूद</w>": 4468,
      "आधारित</w>": 4469,
      "tem": 4470,
      "fav": 4471,
      "भेजा</w>": 4472,
      "pur</w>": 4473,
      "dh": 4474,
      "बदला</w>": 4475,
      "Coun": 4476,
      "स्वरूप</w>": 4477,
      "ारो": 4478,
      "अधिक": 4479,
      "10": 4480,
      "fra": 4481,
      "सक्रि": 4482,
      "effor": 4483,
      "झू": 4484,
      "tics</w>": 4485,
      "परंतु</w>": 4486,
      "ried</w>": 4487,
      "mov": 4488,
      "शर्": 4489,
      "main": 4490,
      "nothing</w>": 4491,
      "टर": 4492,
      "held</w>": 4493,
      "डे</w>": 4494,
      "द्वि": 4495,
      "hammad</w>": 4496,
      "political</w>": 4497,
      "किये</w>": 4498,
      "therefore</w>": 4499,
      "bility</w>": 4500,
      "ffici": 4501,
      "contribu": 4502,
      "निधि</w>": 4503,
      "SID": 4504,
      "स्थापना</w>": 4505,
      "दस्ता": 4506,
      "गुण": 4507,
      "common</w>": 4508,
      "अंतिम</w>": 4509,
      "key</w>": 4510,
      "सद</w>": 4511,
      "साइट</w>": 4512,
      "istry</w>": 4513,
      "obe": 4514,
      "तृ": 4515,
      "पाया</w>": 4516,
      "निस्संदेह</w>": 4517,
      "निवेश</w>": 4518,
      "प्राधि": 4519,
      "yet</w>": 4520,
      "विवरण</w>": 4521,
      "ME</w>": 4522,
      "मति</w>": 4523,
      "isation</w>": 4524,
      "साझ": 4525,
      "पाल</w>": 4526,
      "ON</w>": 4527,
      "sing": 4528,
      "लिम</w>": 4529,
      "लगता</w>": 4530,
      "न्यास</w>": 4531,
      "project</w>": 4532,
      "दारों</w>": 4533,
      "cy</w>": 4534,
      "folder</w>": 4535,
      "जल्": 4536,
      "partment</w>": 4537,
      "Beng": 4538,
      "जिसकी</w>": 4539,
      "thee</w>": 4540,
      "pleas": 4541,
      "समाप्त</w>": 4542,
      "चीन</w>": 4543,
      "uro": 4544,
      "sever": 4545,
      "keep</w>": 4546,
      "ेद</w>": 4547,
      "bea": 4548,
      "मंदिर</w>": 4549,
      "either</w>": 4550,
      "wise</w>": 4551,
      "पुरु": 4552,
      "ics</w>": 4553,
      "100</w>": 4554,
      "णि": 4555,
      "आवे": 4556,
      "squ": 4557,
      "ering</w>": 4558,
      "cum": 4559,
      "rest</w>": 4560,
      "ground</w>": 4561,
      "hearts</w>": 4562,
      "2014</w>": 4563,
      "Govern": 4564,
      "चिकित्": 4565,
      "forms</w>": 4566,
      "religion</w>": 4567,
      "गुना": 4568,
      "और": 4569,
      "Prov": 4570,
      "मेल</w>": 4571,
      "विशिष्ट</w>": 4572,
      "youn": 4573,
      "ternal</w>": 4574,
      "तत्": 4575,
      "ern</w>": 4576,
      "create</w>": 4577,
      "stitution</w>": 4578,
      "uti": 4579,
      "संघ</w>": 4580,
      "tivi": 4581,
      "ज़िल</w>": 4582,
      "show</w>": 4583,
      "ped</w>": 4584,
      "ऊर्": 4585,
      "नौ": 4586,
      "तियां</w>": 4587,
      "growth</w>": 4588,
      "रहता</w>": 4589,
      "18</w>": 4590,
      "वित्तीय</w>": 4591,
      "छवि</w>": 4592,
      "दस्तावे": 4593,
      "wat": 4594,
      "मानों</w>": 4595,
      "ew": 4596,
      "मध्य</w>": 4597,
      "trac": 4598,
      "Please</w>": 4599,
      "मत": 4600,
      "संयुक्त</w>": 4601,
      "कर्म</w>": 4602,
      "course</w>": 4603,
      "वरी</w>": 4604,
      "विभा": 4605,
      "va</w>": 4606,
      "सका</w>": 4607,
      "बत</w>": 4608,
      "बंद</w>": 4609,
      "along</w>": 4610,
      "जाओ</w>": 4611,
      "मूर्": 4612,
      "ners</w>": 4613,
      "tivity</w>": 4614,
      "received</w>": 4615,
      "तकनी": 4616,
      "24</w>": 4617,
      "portun": 4618,
      "खोज</w>": 4619,
      "सिद्ध</w>": 4620,
      "flu": 4621,
      "equal</w>": 4622,
      "fail": 4623,
      "म्बर</w>": 4624,
      "control</w>": 4625,
      "प्रवेश</w>": 4626,
      "नियंत्रण</w>": 4627,
      "where": 4628,
      "local</w>": 4629,
      "term</w>": 4630,
      "cir": 4631,
      "Ha": 4632,
      "Muhammad</w>": 4633,
      "taking</w>": 4634,
      "top</w>": 4635,
      "How</w>": 4636,
      "¥</w>": 4637,
      "Rem": 4638,
      "thir": 4639,
      "पुनर्": 4640,
      "mental</w>": 4641,
      "agre": 4642,
      "बार": 4643,
      "Hindi</w>": 4644,
      "चर्": 4645,
      "जहाँ</w>": 4646,
      "further</w>": 4647,
      "जहन्": 4648,
      "ूब</w>": 4649,
      "मंत्रालय</w>": 4650,
      "भुग": 4651,
      "became</w>": 4652,
      "मॉ": 4653,
      "technology</w>": 4654,
      "लर</w>": 4655,
      "bar</w>": 4656,
      "इस्त": 4657,
      "British</w>": 4658,
      "दियों</w>": 4659,
      "कवि": 4660,
      "लयों</w>": 4661,
      "सरकारी</w>": 4662,
      "accep": 4663,
      "Engl": 4664,
      "path</w>": 4665,
      "Qu": 4666,
      "्री": 4667,
      "gy</w>": 4668,
      "हिस्सा</w>": 4669,
      "कृप": 4670,
      "रो</w>": 4671,
      "19</w>": 4672,
      "hor": 4673,
      "बाहरी</w>": 4674,
      "address</w>": 4675,
      "Offic": 4676,
      "ka</w>": 4677,
      "cop": 4678,
      "बर्": 4679,
      "सिल</w>": 4680,
      "योग्य</w>": 4681,
      "sho": 4682,
      "ources</w>": 4683,
      "नाज़िल</w>": 4684,
      "भूमिका</w>": 4685,
      "tivities</w>": 4686,
      "cribed</w>": 4687,
      "health</w>": 4688,
      "Can": 4689,
      "लाख</w>": 4690,
      "एगा</w>": 4691,
      "At</w>": 4692,
      "समिति</w>": 4693,
      "ached</w>": 4694,
      "सत्य</w>": 4695,
      "ditions</w>": 4696,
      "प्रेर": 4697,
      "total</w>": 4698,
      "सहायक</w>": 4699,
      "ols</w>": 4700,
      "duce</w>": 4701,
      "strict</w>": 4702,
      "ड़ों</w>": 4703,
      "opportun": 4704,
      "16": 4705,
      "परिवार</w>": 4706,
      "pan": 4707,
      "conf": 4708,
      "म्ब": 4709,
      "Messenger</w>": 4710,
      "अम": 4711,
      "पौ": 4712,
      "teach": 4713,
      "Sy": 4714,
      "ermin": 4715,
      "ण्ड</w>": 4716,
      "संविधान</w>": 4717,
      "IS": 4718,
      "hat": 4719,
      "dia</w>": 4720,
      "वेब": 4721,
      "Isra": 4722,
      "लक्ष्य</w>": 4723,
      "ports</w>": 4724,
      "ge": 4725,
      "experi": 4726,
      "पहली</w>": 4727,
      "spe": 4728,
      "med</w>": 4729,
      "भर": 4730,
      "real": 4731,
      "क्षक</w>": 4732,
      "आर</w>": 4733,
      "incl": 4734,
      "मिला</w>": 4735,
      "leave</w>": 4736,
      "आरंभ</w>": 4737,
      "idence</w>": 4738,
      "टू": 4739,
      "Show</w>": 4740,
      "translation</w>": 4741,
      "She</w>": 4742,
      "probably</w>": 4743,
      "bra": 4744,
      "met": 4745,
      "repres": 4746,
      "Commit": 4747,
      "पैग़": 4748,
      "उदाहरण</w>": 4749,
      "मनुष्य</w>": 4750,
      "ricul": 4751,
      "सक्रिय</w>": 4752,
      "प्रबंधन</w>": 4753,
      "required</w>": 4754,
      "कहा": 4755,
      "ize</w>": 4756,
      "optional</w>": 4757,
      "कठि": 4758,
      "mater": 4759,
      "vers</w>": 4760,
      "wrong</w>": 4761,
      "After</w>": 4762,
      "ditional</w>": 4763,
      "knows</w>": 4764,
      "दृश्य</w>": 4765,
      "hu": 4766,
      "SIDENT</w>": 4767,
      "Prime</w>": 4768,
      "पिछले</w>": 4769,
      "works</w>": 4770,
      "pointed</w>": 4771,
      "ज़र</w>": 4772,
      "टिंग</w>": 4773,
      "Most</w>": 4774,
      "\"%</w>": 4775,
      "THE</w>": 4776,
      "hop": 4777,
      "लेते</w>": 4778,
      "ali</w>": 4779,
      "पद</w>": 4780,
      "Des": 4781,
      "later</w>": 4782,
      "lat": 4783,
      "जल": 4784,
      "PRESIDENT</w>": 4785,
      "father</w>": 4786,
      "प्रदर्": 4787,
      "recog": 4788,
      "Cont": 4789,
      "spea": 4790,
      "Mon": 4791,
      "नक</w>": 4792,
      "ज़े</w>": 4793,
      "tiz": 4794,
      "कृपया</w>": 4795,
      "child</w>": 4796,
      "वैज्ञा": 4797,
      "ब्रा": 4798,
      "home</w>": 4799,
      "commit": 4800,
      "अलावा</w>": 4801,
      "Tru": 4802,
      "खाता</w>": 4803,
      "essing</w>": 4804,
      "17</w>": 4805,
      "21</w>": 4806,
      "ner": 4807,
      "अनुमति</w>": 4808,
      "दिनों</w>": 4809,
      "sted</w>": 4810,
      "श्वर</w>": 4811,
      "नेवाला</w>": 4812,
      "सहित</w>": 4813,
      "dies</w>": 4814,
      "उत्तर": 4815,
      "error</w>": 4816,
      "पों</w>": 4817,
      "पूर्वक</w>": 4818,
      "क्र</w>": 4819,
      "दिशा</w>": 4820,
      "selected</w>": 4821,
      "एल</w>": 4822,
      "industry</w>": 4823,
      "Develop": 4824,
      "arly</w>": 4825,
      "स्रो": 4826,
      "ज़रू": 4827,
      "नेवाले</w>": 4828,
      "dri": 4829,
      "रखता</w>": 4830,
      "Mer": 4831,
      "क्रा": 4832,
      "समर्थन</w>": 4833,
      "hands</w>": 4834,
      "भुगतान</w>": 4835,
      "web": 4836,
      "सामग्री</w>": 4837,
      "पसं": 4838,
      "दया": 4839,
      "न्यू": 4840,
      "eafter</w>": 4841,
      "भाग": 4842,
      "शाली</w>": 4843,
      "production</w>": 4844,
      "Cre": 4845,
      "ring</w>": 4846,
      "field</w>": 4847,
      "ल्क</w>": 4848,
      "एम</w>": 4849,
      "promo": 4850,
      "application</w>": 4851,
      "Bi": 4852,
      "aries</w>": 4853,
      "ष्</w>": 4854,
      "अपना": 4855,
      "moder": 4856,
      "compan": 4857,
      "Be": 4858,
      "उत्पन्न</w>": 4859,
      "भीतर</w>": 4860,
      "हरे</w>": 4861,
      "Parliam": 4862,
      "Tr": 4863,
      "परे": 4864,
      "cover": 4865,
      "next</w>": 4866,
      "संशो": 4867,
      "संभव</w>": 4868,
      "money</w>": 4869,
      "Ministry</w>": 4870,
      "second</w>": 4871,
      "air</w>": 4872,
      "सहे": 4873,
      "lied</w>": 4874,
      "several</w>": 4875,
      "activities</w>": 4876,
      "working</w>": 4877,
      "इस्ते": 4878,
      "English</w>": 4879,
      "anted</w>": 4880,
      "certainly</w>": 4881,
      "अनुभव</w>": 4882,
      "त्रुटि</w>": 4883,
      "peti": 4884,
      "अध्ययन</w>": 4885,
      "ज्ञात</w>": 4886,
      "आदमी</w>": 4887,
      "ches</w>": 4888,
      "Singh</w>": 4889,
      "research</w>": 4890,
      "NA": 4891,
      "Ne": 4892,
      "pris": 4893,
      "Si": 4894,
      "लोड</w>": 4895,
      "स्त्र</w>": 4896,
      "आवा": 4897,
      "विद्या": 4898,
      "hand": 4899,
      "University</w>": 4900,
      "went</w>": 4901,
      "2015</w>": 4902,
      "iting</w>": 4903,
      "फ़ा": 4904,
      "आधु": 4905,
      "क़यामत</w>": 4906,
      "मृत्य": 4907,
      "मही": 4908,
      "authority</w>": 4909,
      "anything</w>": 4910,
      "Af": 4911,
      "अप्र": 4912,
      "वो</w>": 4913,
      "दिव": 4914,
      "example</w>": 4915,
      "hind</w>": 4916,
      "22</w>": 4917,
      "La": 4918,
      "cam": 4919,
      "glo": 4920,
      "forth</w>": 4921,
      "सर्वर</w>": 4922,
      "special</w>": 4923,
      "Moses</w>": 4924,
      "सम</w>": 4925,
      "मजबू": 4926,
      "चले</w>": 4927,
      "सेट</w>": 4928,
      "सुनिश्चित</w>": 4929,
      "mme</w>": 4930,
      "आसमान</w>": 4931,
      "IC": 4932,
      "खाते</w>": 4933,
      "sw": 4934,
      "छ्": 4935,
      "ष्टि": 4936,
      "Direc": 4937,
      "da": 4938,
      "साहित्य</w>": 4939,
      "struction</w>": 4940,
      "valu": 4941,
      "मृत्यु</w>": 4942,
      "impl": 4943,
      "uses</w>": 4944,
      "let": 4945,
      "doub": 4946,
      "ails</w>": 4947,
      "quality</w>": 4948,
      "comes</w>": 4949,
      "na": 4950,
      "फी": 4951,
      "बच्चे</w>": 4952,
      "ध्व": 4953,
      "Nor": 4954,
      "lin": 4955,
      "आम</w>": 4956,
      "भौ": 4957,
      "डाक</w>": 4958,
      "रुप</w>": 4959,
      "thought</w>": 4960,
      "अंत</w>": 4961,
      "दक्षिण</w>": 4962,
      "स्टे": 4963,
      "पड़ा</w>": 4964,
      "itself</w>": 4965,
      "bal": 4966,
      "टु": 4967,
      "बाजार</w>": 4968,
      "व्यक्ति": 4969,
      "भूत</w>": 4970,
      "City</w>": 4971,
      "sem": 4972,
      "anim": 4973,
      "verse</w>": 4974,
      "ported</w>": 4975,
      "foreign</w>": 4976,
      "बाप</w>": 4977,
      "उनपर</w>": 4978,
      "प्रशिक्षण</w>": 4979,
      "सियों</w>": 4980,
      "paid</w>": 4981,
      "देव": 4982,
      "General</w>": 4983,
      "ied</w>": 4984,
      "क्षेत्र": 4985,
      "जैसी</w>": 4986,
      "सिद्धा": 4987,
      "situ": 4988,
      "got</w>": 4989,
      "Ro": 4990,
      "पक्ष</w>": 4991,
      "कारियों</w>": 4992,
      "heart</w>": 4993,
      "सार्वज": 4994,
      "sia</w>": 4995,
      "राज्यों</w>": 4996,
      "प्रारंभ</w>": 4997,
      "रिया</w>": 4998,
      "लूम</w>": 4999,
      "current</w>": 5000,
      "ealed</w>": 5001,
      "SA": 5002,
      "ऊर्जा</w>": 5003,
      "ash</w>": 5004,
      "ustice</w>": 5005,
      "गैर</w>": 5006,
      "Fin": 5007,
      "press</w>": 5008,
      "fig": 5009,
      "01</w>": 5010,
      "इतना</w>": 5011,
      "हा</w>": 5012,
      "eness</w>": 5013,
      "necessary</w>": 5014,
      "विस्ता": 5015,
      "farm": 5016,
      "Im": 5017,
      "मात्रा</w>": 5018,
      "वापस</w>": 5019,
      "सार्वजनिक</w>": 5020,
      "ग्रह": 5021,
      "भवि": 5022,
      "live</w>": 5023,
      "जाएँगे</w>": 5024,
      "omes</w>": 5025,
      "पाठ": 5026,
      "ests</w>": 5027,
      "occasion</w>": 5028,
      "मय</w>": 5029,
      "kar</w>": 5030,
      "ama</w>": 5031,
      "हस्ता": 5032,
      "mit</w>": 5033,
      "ऊण्": 5034,
      "श्छ्": 5035,
      "ऊण्श्छ्": 5036,
      "ऊण्श्छ्ष्</w>": 5037,
      "60</w>": 5038,
      "सुर": 5039,
      "पर्य": 5040,
      "इस्तेमाल</w>": 5041,
      "आन": 5042,
      "हैः</w>": 5043,
      "स्थायी</w>": 5044,
      "ound": 5045,
      "history</w>": 5046,
      "Cl": 5047,
      "tran": 5048,
      "diffic": 5049,
      "agricul": 5050,
      "यद</w>": 5051,
      "sequ": 5052,
      "previous</w>": 5053,
      "ested</w>": 5054,
      "provisions</w>": 5055,
      "प्रकृति</w>": 5056,
      "गल</w>": 5057,
      "ray</w>": 5058,
      "जाएँ</w>": 5059,
      "ongs</w>": 5060,
      "सला</w>": 5061,
      "property</w>": 5062,
      "spo": 5063,
      "2018</w>": 5064,
      "city</w>": 5065,
      "established</w>": 5066,
      "related</w>": 5067,
      "ंः</w>": 5068,
      "enjo": 5069,
      "त्सा": 5070,
      "मिटा": 5071,
      "tou": 5072,
      "लक": 5073,
      "financial</w>": 5074,
      "चय": 5075,
      "योगिक</w>": 5076,
      "fru": 5077,
      "har</w>": 5078,
      "save</w>": 5079,
      "ंग्": 5080,
      "poses</w>": 5081,
      "started</w>": 5082,
      "ate": 5083,
      "शिया</w>": 5084,
      "बातें</w>": 5085,
      "disc": 5086,
      "प्रेम</w>": 5087,
      "रोग</w>": 5088,
      "Serv": 5089,
      "def": 5090,
      "बढ़</w>": 5091,
      "Some</w>": 5092,
      "पूरे</w>": 5093,
      "how": 5094,
      "Pradesh</w>": 5095,
      "ats</w>": 5096,
      "Rep": 5097,
      "therein</w>": 5098,
      "पुस्त": 5099,
      "17": 5100,
      "security</w>": 5101,
      "विस्तार</w>": 5102,
      "श्री": 5103,
      "निया": 5104,
      "मामलों</w>": 5105,
      "पुरस्": 5106,
      "mail</w>": 5107,
      "cil</w>": 5108,
      "graph": 5109,
      "बोर्ड</w>": 5110,
      "लिखा</w>": 5111,
      "भ्र": 5112,
      "ending</w>": 5113,
      "साफ</w>": 5114,
      "doing</w>": 5115,
      "Court</w>": 5116,
      "complete</w>": 5117,
      "रहो</w>": 5118,
      "खेल</w>": 5119,
      "विकल्प</w>": 5120,
      "force</w>": 5121,
      "itation</w>": 5122,
      "image</w>": 5123,
      "assess": 5124,
      "tioned</w>": 5125,
      "बान</w>": 5126,
      "peace</w>": 5127,
      "ील</w>": 5128,
      "reward</w>": 5129,
      "tra</w>": 5130,
      "बदल</w>": 5131,
      "meeting</w>": 5132,
      "कमा": 5133,
      "193": 5134,
      "नीतिक</w>": 5135,
      "ication</w>": 5136,
      "wid": 5137,
      "files</w>": 5138,
      "scheme</w>": 5139,
      "young</w>": 5140,
      "cost</w>": 5141,
      "मालूम</w>": 5142,
      "मुँ": 5143,
      "डाल</w>": 5144,
      "जिनमें</w>": 5145,
      "soul</w>": 5146,
      "ulation</w>": 5147,
      "ऊँ": 5148,
      "र्जी</w>": 5149,
      "ख़्": 5150,
      "fault</w>": 5151,
      "न्व": 5152,
      "जांच</w>": 5153,
      "गठ": 5154,
      "hath</w>": 5155,
      "spi": 5156,
      "विंडो</w>": 5157,
      "40</w>": 5158,
      "विध": 5159,
      "behind</w>": 5160,
      "ton": 5161,
      "lood</w>": 5162,
      "साधारण</w>": 5163,
      "अत्यन्त</w>": 5164,
      "phet</w>": 5165,
      "purpose</w>": 5166,
      "eted</w>": 5167,
      "ग्रामी": 5168,
      "प्रगति</w>": 5169,
      "निम्न": 5170,
      "Development</w>": 5171,
      "changes</w>": 5172,
      "gn": 5173,
      "दय</w>": 5174,
      "पहुं": 5175,
      "bri": 5176,
      "near</w>": 5177,
      "written</w>": 5178,
      "gue</w>": 5179,
      "13": 5180,
      "शहर</w>": 5181,
      "asked</w>": 5182,
      "बातों</w>": 5183,
      "major</w>": 5184,
      "Cal": 5185,
      "hou": 5186,
      "पहा": 5187,
      "पदा": 5188,
      "वाही</w>": 5189,
      "सेना</w>": 5190,
      "कांग्रे": 5191,
      "संघ": 5192,
      "temp": 5193,
      "ड़ा": 5194,
      "2016</w>": 5195,
      "cell": 5196,
      "ine": 5197,
      "Now</w>": 5198,
      "iding</w>": 5199,
      "mercy</w>": 5200,
      "कमी</w>": 5201,
      "ists</w>": 5202,
      "शख्": 5203,
      "कान</w>": 5204,
      "संगठन</w>": 5205,
      "यक़ीनन</w>": 5206,
      "साय": 5207,
      "र्स</w>": 5208,
      "specified</w>": 5209,
      "सत्ता</w>": 5210,
      "ense</w>": 5211,
      "By</w>": 5212,
      "रोक": 5213,
      "referred</w>": 5214,
      "future</w>": 5215,
      "सक्षम</w>": 5216,
      "ili": 5217,
      "Thus</w>": 5218,
      "Pol": 5219,
      "acity</w>": 5220,
      "कार्या": 5221,
      "ross</w>": 5222,
      "Sat": 5223,
      "इच्छ": 5224,
      "जरूरत</w>": 5225,
      "वेबसाइट</w>": 5226,
      "महत्": 5227,
      "Euro": 5228,
      "नदी</w>": 5229,
      "चित्र</w>": 5230,
      "stom": 5231,
      "लीन</w>": 5232,
      "once</w>": 5233,
      "ecu": 5234,
      "soever</w>": 5235,
      "पश्चात</w>": 5236,
      "logical</w>": 5237,
      "संरचना</w>": 5238,
      "अर्था": 5239,
      "ph</w>": 5240,
      "success": 5241,
      "संसद</w>": 5242,
      "ciful</w>": 5243,
      "हरा</w>": 5244,
      "2000</w>": 5245,
      "रीब</w>": 5246,
      "greater</w>": 5247,
      "खरी": 5248,
      "une</w>": 5249,
      "fire</w>": 5250,
      "bly</w>": 5251,
      "चाई</w>": 5252,
      "शल</w>": 5253,
      "ard": 5254,
      "stitute</w>": 5255,
      "प्रश्न</w>": 5256,
      "soon</w>": 5257,
      "2013</w>": 5258,
      "बच": 5259,
      "rema": 5260,
      "बंगा": 5261,
      "अपरा": 5262,
      "Ap": 5263,
      "अंत": 5264,
      "usu": 5265,
      "संके": 5266,
      "शख्स</w>": 5267,
      "मात्र</w>": 5268,
      "ligh": 5269,
      "tively</w>": 5270,
      "जर</w>": 5271,
      "टवर्": 5272,
      "णी": 5273,
      "market</w>": 5274,
      "चारी</w>": 5275,
      "identi": 5276,
      "Tra": 5277,
      "etwork</w>": 5278,
      "revealed</w>": 5279,
      "living</w>": 5280,
      "पाठ</w>": 5281,
      "esides</w>": 5282,
      "lem</w>": 5283,
      "ards</w>": 5284,
      "duction</w>": 5285,
      "whatever</w>": 5286,
      "वायु</w>": 5287,
      "higher</w>": 5288,
      "community</w>": 5289,
      "pay</w>": 5290,
      "पूर्ति</w>": 5291,
      "tures</w>": 5292,
      "institutions</w>": 5293,
      "लाइ": 5294,
      "उचित</w>": 5295,
      "भारी</w>": 5296,
      "ordin": 5297,
      "parts</w>": 5298,
      "संगी": 5299,
      "सदस्यों</w>": 5300,
      "Dec": 5301,
      "देखने</w>": 5302,
      "lot</w>": 5303,
      "कहो</w>": 5304,
      "Is</w>": 5305,
      "अनिवा": 5306,
      "23</w>": 5307,
      "मुँह</w>": 5308,
      "sor": 5309,
      "vic": 5310,
      "imum</w>": 5311,
      "घटना</w>": 5312,
      "table</w>": 5313,
      "वृत्ति</w>": 5314,
      "28</w>": 5315,
      "समस्या</w>": 5316,
      "multi": 5317,
      "समारो": 5318,
      "kers</w>": 5319,
      "जन्म</w>": 5320,
      "ग्रामीण</w>": 5321,
      "inte": 5322,
      "understand</w>": 5323,
      "guidance</w>": 5324,
      "भग": 5325,
      "नमा": 5326,
      "थि": 5327,
      "engers</w>": 5328,
      "students</w>": 5329,
      "करोड़</w>": 5330,
      "Ara": 5331,
      "sting</w>": 5332,
      "सुविधा": 5333,
      "तारी": 5334,
      "उपयो": 5335,
      "IT": 5336,
      "kh</w>": 5337,
      "ठा</w>": 5338,
      "OR": 5339,
      "औद्": 5340,
      "केंद्रीय</w>": 5341,
      "share</w>": 5342,
      "संदर्": 5343,
      "व्यापक</w>": 5344,
      "since</w>": 5345,
      "ौती</w>": 5346,
      "stand": 5347,
      "meth": 5348,
      "आतं": 5349,
      "environ": 5350,
      "start</w>": 5351,
      "यें</w>": 5352,
      "खुद</w>": 5353,
      "sal": 5354,
      "पूंजी</w>": 5355,
      "determin": 5356,
      "command</w>": 5357,
      "गांधी</w>": 5358,
      "text</w>": 5359,
      "separ": 5360,
      "subject</w>": 5361,
      "ording</w>": 5362,
      "ourselves</w>": 5363,
      "defin": 5364,
      "मद</w>": 5365,
      "सृ": 5366,
      "Or": 5367,
      "खिला": 5368,
      "आँ": 5369,
      "righte": 5370,
      "तरित</w>": 5371,
      "question</w>": 5372,
      "दिखाएँ</w>": 5373,
      "चो": 5374,
      "जाति</w>": 5375,
      "कित</w>": 5376,
      "months</w>": 5377,
      "Hindu</w>": 5378,
      "told</w>": 5379,
      "Union</w>": 5380,
      "दिखाई</w>": 5381,
      "website</w>": 5382,
      "¤¸</w>": 5383,
      "क्षर</w>": 5384,
      "कोशिश</w>": 5385,
      "Muslims</w>": 5386,
      "release</w>": 5387,
      "यूरो": 5388,
      "Surely</w>": 5389,
      "run": 5390,
      "With</w>": 5391,
      "appointed</w>": 5392,
      "Dr</w>": 5393,
      "Verily</w>": 5394,
      "ant": 5395,
      "नवा": 5396,
      "nu": 5397,
      "इनमें</w>": 5398,
      "sign</w>": 5399,
      "bank</w>": 5400,
      "स्वतं": 5401,
      "ख्त</w>": 5402,
      "rang": 5403,
      "ंभ": 5404,
      "building</w>": 5405,
      "¤¿</w>": 5406,
      "पृष्ठ</w>": 5407,
      "कानून</w>": 5408,
      "includ": 5409,
      "House</w>": 5410,
      "send</w>": 5411,
      "Congress</w>": 5412,
      "सत</w>": 5413,
      "INDI": 5414,
      "enter</w>": 5415,
      "्यूटर</w>": 5416,
      "बयान</w>": 5417,
      "regar": 5418,
      "शायद</w>": 5419,
      "goods</w>": 5420,
      "Mad": 5421,
      "ml</w>": 5422,
      "प्राथ": 5423,
      "पहचान</w>": 5424,
      "weal": 5425,
      "Muslim</w>": 5426,
      "प्रकाश</w>": 5427,
      "डो": 5428,
      "नगर</w>": 5429,
      "lig": 5430,
      "Committee</w>": 5431,
      "प्रोत्सा": 5432,
      "मुक्त</w>": 5433,
      "verily</w>": 5434,
      "net</w>": 5435,
      "vision</w>": 5436,
      "चरण</w>": 5437,
      "pared</w>": 5438,
      "अधिका": 5439,
      "role</w>": 5440,
      "व्यक्त</w>": 5441,
      "till</w>": 5442,
      "फु": 5443,
      "देती</w>": 5444,
      "esses</w>": 5445,
      "umb": 5446,
      "chec": 5447,
      "ंब": 5448,
      "court</w>": 5449,
      "gs</w>": 5450,
      "RRB</w>": 5451,
      "sett": 5452,
      "फाइल</w>": 5453,
      "चुनें</w>": 5454,
      "free": 5455,
      "बने</w>": 5456,
      "बचा": 5457,
      "व्यवहार</w>": 5458,
      "सर्वो": 5459,
      "if": 5460,
      "लिस</w>": 5461,
      "iness</w>": 5462,
      "ज्ञ</w>": 5463,
      "needs</w>": 5464,
      "care</w>": 5465,
      "Cor": 5466,
      "mother</w>": 5467,
      "वजह</w>": 5468,
      "acqu": 5469,
      "mal</w>": 5470,
      "स्तक</w>": 5471,
      "बदले</w>": 5472,
      "म्मे": 5473,
      "सफलता</w>": 5474,
      "Er": 5475,
      "ident</w>": 5476,
      "mitted</w>": 5477,
      "destro": 5478,
      "चला</w>": 5479,
      "blems</w>": 5480,
      "deb": 5481,
      "महान</w>": 5482,
      "दायि": 5483,
      "Kno": 5484,
      "जोर</w>": 5485,
      "नर</w>": 5486,
      "lier</w>": 5487,
      "Department</w>": 5488,
      "र्म": 5489,
      "नियाँ</w>": 5490,
      "moun": 5491,
      "office</w>": 5492,
      "ग्रहण</w>": 5493,
      "LRB</w>": 5494,
      "उच्च": 5495,
      "ita</w>": 5496,
      "निजी</w>": 5497,
      "लेगा</w>": 5498,
      "कांग्रेस</w>": 5499,
      "ओगे</w>": 5500,
      "सुविधा</w>": 5501,
      "परिष": 5502,
      "लाते</w>": 5503,
      "निर्यात</w>": 5504,
      "बैं": 5505,
      "stu": 5506,
      "26</w>": 5507,
      "किंतु</w>": 5508,
      "II</w>": 5509,
      "Sab": 5510,
      "century</w>": 5511,
      "eding</w>": 5512,
      "gres": 5513,
      "राजा</w>": 5514,
      "मांग</w>": 5515,
      "पुनः</w>": 5516,
      "चयनित</w>": 5517,
      "dar": 5518,
      "ging</w>": 5519,
      "रखना</w>": 5520,
      "्यों</w>": 5521,
      "server</w>": 5522,
      "result</w>": 5523,
      "gives</w>": 5524,
      "व्यक्तियों</w>": 5525,
      "invol": 5526,
      "ailed</w>": 5527,
      "खों</w>": 5528,
      "स्वतंत्रता</w>": 5529,
      "why</w>": 5530,
      "allowed</w>": 5531,
      "saying</w>": 5532,
      "लाओं</w>": 5533,
      "जवाब</w>": 5534,
      "eyes</w>": 5535,
      "रल</w>": 5536,
      "hal</w>": 5537,
      "amp</w>": 5538,
      "close</w>": 5539,
      "simil": 5540,
      "List</w>": 5541,
      "मै</w>": 5542,
      "रते</w>": 5543,
      "size</w>": 5544,
      "योजनाओं</w>": 5545,
      "मीटर</w>": 5546,
      "wing</w>": 5547,
      "xed</w>": 5548,
      "रहेंगे</w>": 5549,
      "पुरुष</w>": 5550,
      "problem</w>": 5551,
      "योगदान</w>": 5552,
      "ideo</w>": 5553,
      "आयतों</w>": 5554,
      "individual</w>": 5555,
      "आधुनिक</w>": 5556,
      "पात</w>": 5557,
      "tually</w>": 5558,
      "औद्योगिक</w>": 5559,
      "MA": 5560,
      "अर": 5561,
      "Bra": 5562,
      "back": 5563,
      "रखो</w>": 5564,
      "चाहिये</w>": 5565,
      "प्रिय</w>": 5566,
      "books</w>": 5567,
      "however</w>": 5568,
      "सवा": 5569,
      "ina</w>": 5570,
      "nific": 5571,
      "sla": 5572,
      "दशा</w>": 5573,
      "version</w>": 5574,
      "eight</w>": 5575,
      "basis</w>": 5576,
      "proce": 5577,
      "पुरस्कार</w>": 5578,
      "aj": 5579,
      "टाइ": 5580,
      "ingly</w>": 5581,
      "मंडल</w>": 5582,
      "party</w>": 5583,
      "scienti": 5584,
      "plant</w>": 5585,
      "14": 5586,
      "RO": 5587,
      "ाओं</w>": 5588,
      "sense</w>": 5589,
      "शता": 5590,
      "considered</w>": 5591,
      "Ju": 5592,
      "Tech": 5593,
      "गुम": 5594,
      "क्त": 5595,
      "coming</w>": 5596,
      "बिल्": 5597,
      "eat</w>": 5598,
      "माँ": 5599,
      "Tri": 5600,
      "itor</w>": 5601,
      "How": 5602,
      "energy</w>": 5603,
      "persons</w>": 5604,
      "cription</w>": 5605,
      "tree</w>": 5606,
      "Pl": 5607,
      "रिपोर्ट</w>": 5608,
      "रख</w>": 5609,
      "लियों</w>": 5610,
      "परीक्षा</w>": 5611,
      "ching</w>": 5612,
      "que</w>": 5613,
      "effect</w>": 5614,
      "फा</w>": 5615,
      "istan</w>": 5616,
      "Could</w>": 5617,
      "remember</w>": 5618,
      "राय</w>": 5619,
      "problems</w>": 5620,
      "eb": 5621,
      "स्ती</w>": 5622,
      "दृष्टि": 5623,
      "Parliament</w>": 5624,
      "phys": 5625,
      "purposes</w>": 5626,
      "eci": 5627,
      "ince</w>": 5628,
      "Her": 5629,
      "रानी</w>": 5630,
      "प्रकट</w>": 5631,
      "मुद्": 5632,
      "१९": 5633,
      "प्रशा": 5634,
      "Har": 5635,
      "ech</w>": 5636,
      "वास्तविक</w>": 5637,
      "wealth</w>": 5638,
      "स्रोत</w>": 5639,
      "bil": 5640,
      "computer</w>": 5641,
      "movement</w>": 5642,
      "simp": 5643,
      "conduc": 5644,
      "ati</w>": 5645,
      "सक</w>": 5646,
      "spir": 5647,
      "शेष</w>": 5648,
      "पण</w>": 5649,
      "terms</w>": 5650,
      "El": 5651,
      "jour": 5652,
      "विस्त": 5653,
      "ither</w>": 5654,
      "sear": 5655,
      "वर्ती</w>": 5656,
      "single</w>": 5657,
      "!\"</w>": 5658,
      "नाटक</w>": 5659,
      "दूसरा</w>": 5660,
      "भविष्य</w>": 5661,
      "गुज": 5662,
      "write</w>": 5663,
      "Gre": 5664,
      "essed</w>": 5665,
      "सुरक्षित</w>": 5666,
      "mage</w>": 5667,
      "proved</w>": 5668,
      "मोह": 5669,
      "atters</w>": 5670,
      "वैज्ञानिक</w>": 5671,
      "ग़ा": 5672,
      "प्रभावित</w>": 5673,
      ".)</w>": 5674,
      "डिस्क</w>": 5675,
      "कीय</w>": 5676,
      "बुरा</w>": 5677,
      "ंद": 5678,
      "essee</w>": 5679,
      "sil": 5680,
      "पिता</w>": 5681,
      "co</w>": 5682,
      "पुस्तक</w>": 5683,
      "साह": 5684,
      "लागत</w>": 5685,
      "मुस्": 5686,
      "mean": 5687,
      "med": 5688,
      "imp": 5689,
      "अध्या": 5690,
      "tificate</w>": 5691,
      "थों</w>": 5692,
      "particip": 5693,
      "आयोजित</w>": 5694,
      "discus": 5695,
      "स्थ</w>": 5696,
      "हद</w>": 5697,
      "prev": 5698,
      "manner</w>": 5699,
      "प्रकाशित</w>": 5700,
      "html</w>": 5701,
      "Kar": 5702,
      "dro": 5703,
      "trade</w>": 5704,
      "Constitution</w>": 5705,
      "माता</w>": 5706,
      "acts</w>": 5707,
      "यू</w>": 5708,
      "poor</w>": 5709,
      "ब्या": 5710,
      "However</w>": 5711,
      "citiz": 5712,
      "निर्धारि": 5713,
      "ES</w>": 5714,
      "रुद्ध</w>": 5715,
      "vate</w>": 5716,
      "¤¨</w>": 5717,
      "pran": 5718,
      "poss": 5719,
      "शिका": 5720,
      "Bud": 5721,
      "sac": 5722,
      "टने</w>": 5723,
      "27</w>": 5724,
      "शताब्": 5725,
      "कार्यालय</w>": 5726,
      "समारोह</w>": 5727,
      "ategory</w>": 5728,
      "ising</w>": 5729,
      "डाला</w>": 5730,
      "thus</w>": 5731,
      "मार्ग": 5732,
      "village</w>": 5733,
      "नेटवर्": 5734,
      "often</w>": 5735,
      "passed</w>": 5736,
      "विशा": 5737,
      "थि</w>": 5738,
      "बू</w>": 5739,
      "ंकन</w>": 5740,
      "ip": 5741,
      "implem": 5742,
      "समुदाय</w>": 5743,
      "निवे": 5744,
      "Israel</w>": 5745,
      "none</w>": 5746,
      "ढंग</w>": 5747,
      "दिवस</w>": 5748,
      "Bhar": 5749,
      "aste</w>": 5750,
      "बनी</w>": 5751,
      "govern": 5752,
      "टकर</w>": 5753,
      "ick": 5754,
      "religious</w>": 5755,
      "सल</w>": 5756,
      "राजनीतिक</w>": 5757,
      "आवेदन</w>": 5758,
      "मेलन</w>": 5759,
      "wee": 5760,
      "चर</w>": 5761,
      "hr": 5762,
      "trav": 5763,
      "Regi": 5764,
      "फ़ॉ": 5765,
      "Prophet</w>": 5766,
      "श्त</w>": 5767,
      "Information</w>": 5768,
      "America</w>": 5769,
      "cel": 5770,
      "कोण</w>": 5771,
      "strong</w>": 5772,
      "Bank</w>": 5773,
      "achiev": 5774,
      "बाज़</w>": 5775,
      "doers</w>": 5776,
      "निर्धारिती</w>": 5777,
      "Ev": 5778,
      "Hi": 5779,
      "मिन": 5780,
      "यंत्र</w>": 5781,
      "नात्मक</w>": 5782,
      "fficient</w>": 5783,
      "चालन</w>": 5784,
      "कृष्": 5785,
      "ian</w>": 5786,
      "पश्चिम</w>": 5787,
      "ror": 5788,
      "रकम</w>": 5789,
      "fication</w>": 5790,
      "task</w>": 5791,
      "international</w>": 5792,
      "administ": 5793,
      "messages</w>": 5794,
      "my": 5795,
      "बंगाल</w>": 5796,
      "The": 5797,
      "assessee</w>": 5798,
      "महारा": 5799,
      "natural</w>": 5800,
      "Bengal</w>": 5801,
      "वार": 5802,
      "31</w>": 5803,
      "Fol": 5804,
      "ot</w>": 5805,
      "stre": 5806,
      "seek</w>": 5807,
      "management</w>": 5808,
      "mach": 5809,
      "esti": 5810,
      "हृ": 5811,
      "संरक्षण</w>": 5812,
      "eded</w>": 5813,
      "idd": 5814,
      "संस्कृति</w>": 5815,
      "'.</w>": 5816,
      "rish": 5817,
      "ट्स</w>": 5818,
      "मुसलमानों</w>": 5819,
      "दीन</w>": 5820,
      "संस्था</w>": 5821,
      "चिं": 5822,
      "मनो": 5823,
      "issued</w>": 5824,
      "payment</w>": 5825,
      "महिला</w>": 5826,
      "makes</w>": 5827,
      "लैंड</w>": 5828,
      "सीधे</w>": 5829,
      "tar": 5830,
      "sic</w>": 5831,
      "ticle</w>": 5832,
      "ंतर</w>": 5833,
      "देंगे</w>": 5834,
      "शीर्ष": 5835,
      "INDIA</w>": 5836,
      "अवश्य</w>": 5837,
      "गिर": 5838,
      "यथा": 5839,
      "शुल्क</w>": 5840,
      "reason</w>": 5841,
      "assessment</w>": 5842,
      "उपकरण</w>": 5843,
      "progress</w>": 5844,
      "समझौ": 5845,
      "मर</w>": 5846,
      "lower</w>": 5847,
      "निकल</w>": 5848,
      "Gandhi</w>": 5849,
      "alone</w>": 5850,
      "बॉ": 5851,
      "शू": 5852,
      "anci": 5853,
      "संदर्भ</w>": 5854,
      "यद्य": 5855,
      "Let</w>": 5856,
      "छोटी</w>": 5857,
      "mark": 5858,
      "ST": 5859,
      "हासिल</w>": 5860,
      "school</w>": 5861,
      "author": 5862,
      "आपकी</w>": 5863,
      "Us</w>": 5864,
      "visit</w>": 5865,
      "प्रस्ताव</w>": 5866,
      "ck</w>": 5867,
      "rup": 5868,
      "चित्र": 5869,
      "चुकी</w>": 5870,
      "दोलन</w>": 5871,
      "सेवाओं</w>": 5872,
      "माइ": 5873,
      "class</w>": 5874,
      "मुखर्जी</w>": 5875,
      "fla": 5876,
      "fron": 5877,
      "यद्यपि</w>": 5878,
      "च्चा</w>": 5879,
      "mukherjee</w>": 5880,
      "केन्द्रीय</w>": 5881,
      "everything</w>": 5882,
      "किंग</w>": 5883,
      "devo": 5884,
      "दल</w>": 5885,
      "tract</w>": 5886,
      "oul": 5887,
      "lock</w>": 5888,
      "लेखा</w>": 5889,
      "भेज": 5890,
      "गृ": 5891,
      "इका": 5892,
      "हटा": 5893,
      "conditions</w>": 5894,
      "क्रमण</w>": 5895,
      "abmukherjee</w>": 5896,
      "निम्नलिखित</w>": 5897,
      "pranabmukherjee</w>": 5898,
      "Ko": 5899,
      "मुद्रा</w>": 5900,
      "Open</w>": 5901,
      "पथ</w>": 5902,
      "मन": 5903,
      "संगीत</w>": 5904,
      "इयों</w>": 5905,
      "पर्याप्त</w>": 5906,
      "Council</w>": 5907,
      "sibility</w>": 5908,
      "viol": 5909,
      "blood</w>": 5910,
      "wel": 5911,
      "increase</w>": 5912,
      "आतंक": 5913,
      "मारी</w>": 5914,
      "short</w>": 5915,
      "परं": 5916,
      "ref": 5917,
      "really</w>": 5918,
      "region</w>": 5919,
      "विन": 5920,
      "¤</w>": 5921,
      "Fire</w>": 5922,
      "sis</w>": 5923,
      "efforts</w>": 5924,
      "सॉ": 5925,
      "according</w>": 5926,
      "चर्चा</w>": 5927,
      "प्रभावी</w>": 5928,
      "space</w>": 5929,
      "pal": 5930,
      "tained</w>": 5931,
      "बैठे</w>": 5932,
      "illed</w>": 5933,
      "सत": 5934,
      "pot": 5935,
      "least</w>": 5936,
      "freedom</w>": 5937,
      "general</w>": 5938,
      "neither</w>": 5939,
      "developed</w>": 5940,
      "संपत्ति</w>": 5941,
      "lab": 5942,
      "pain": 5943,
      "mun": 5944,
      "charge</w>": 5945,
      "कहना</w>": 5946,
      "obj": 5947,
      "कम्प": 5948,
      "तत्व": 5949,
      "ser</w>": 5950,
      "ज्ञा</w>": 5951,
      "cle": 5952,
      "matters</w>": 5953,
      "ँकि</w>": 5954,
      "ani</w>": 5955,
      "गिरो": 5956,
      "ention</w>": 5957,
      "गाह</w>": 5958,
      "पूर्ण": 5959,
      "RA": 5960,
      "fal": 5961,
      "Such</w>": 5962,
      "सकें</w>": 5963,
      "तरीके</w>": 5964,
      "गुणव": 5965,
      "हिन्दी</w>": 5966,
      "ories</w>": 5967,
      "धाई</w>": 5968,
      "eral</w>": 5969,
      "तेरे</w>": 5970,
      "मियों</w>": 5971,
      "culture</w>": 5972,
      "केन्द्र</w>": 5973,
      "उत्पाद</w>": 5974,
      "Se": 5975,
      "consci": 5976,
      "source</w>": 5977,
      "duty</w>": 5978,
      "न्याय": 5979,
      "जीव</w>": 5980,
      "शब्दों</w>": 5981,
      "fast</w>": 5982,
      "द्वी": 5983,
      "लब</w>": 5984,
      "past</w>": 5985,
      "जहन्नु": 5986,
      "लिंग</w>": 5987,
      "आता</w>": 5988,
      "meet</w>": 5989,
      "File</w>": 5990,
      "आती</w>": 5991,
      "ँच</w>": 5992,
      "देशक</w>": 5993,
      "sum": 5994,
      "ज़ु": 5995,
      "शीघ": 5996,
      "स्कूल</w>": 5997,
      "million</w>": 5998,
      "modern</w>": 5999,
      "००": 6000,
      "दक</w>": 6001,
      "पद्ध": 6002,
      "रंग": 6003,
      "पृथ": 6004,
      "thous": 6005,
      "कल्पना</w>": 6006,
      "12": 6007,
      "न्द्र": 6008,
      "az": 6009,
      "hard</w>": 6010,
      "benefit</w>": 6011,
      "Or</w>": 6012,
      "सन्</w>": 6013,
      "ज़रूर</w>": 6014,
      "धनों</w>": 6015,
      "Select</w>": 6016,
      "हक</w>": 6017,
      "elo": 6018,
      "सूचित</w>": 6019,
      "प्रण": 6020,
      "नें</w>": 6021,
      "महत्व</w>": 6022,
      "संसाधन</w>": 6023,
      "धार्": 6024,
      "tically</w>": 6025,
      "आत्म": 6026,
      "आयात</w>": 6027,
      "स्टा": 6028,
      "External</w>": 6029,
      "आख़िरत</w>": 6030,
      "1st</w>": 6031,
      "loss</w>": 6032,
      "mankind</w>": 6033,
      "valid</w>": 6034,
      "सब्": 6035,
      "खी</w>": 6036,
      "chall": 6037,
      "vil</w>": 6038,
      "सम्मि": 6039,
      "ज़िन्": 6040,
      "अत्या": 6041,
      "rer</w>": 6042,
      "regu": 6043,
      "scal": 6044,
      "dio</w>": 6045,
      "पंचा": 6046,
      "सारी</w>": 6047,
      "पाने</w>": 6048,
      "tar</w>": 6049,
      "capacity</w>": 6050,
      "निकट</w>": 6051,
      "month</w>": 6052,
      "राज</w>": 6053,
      "विरुद्ध</w>": 6054,
      "नेक्": 6055,
      "सात</w>": 6056,
      "itable</w>": 6057,
      "प्राकृतिक</w>": 6058,
      "],</w>": 6059,
      "पेश</w>": 6060,
      "अना": 6061,
      "उत": 6062,
      "followed</w>": 6063,
      "wish</w>": 6064,
      "बधाई</w>": 6065,
      "क्रो": 6066,
      "(%</w>": 6067,
      "says</w>": 6068,
      "Mr</w>": 6069,
      "des</w>": 6070,
      "वार्ष": 6071,
      "नाव</w>": 6072,
      "पादन</w>": 6073,
      "training</w>": 6074,
      "निर्वा": 6075,
      "forward</w>": 6076,
      "निर्मित</w>": 6077,
      "प्रमाणपत्र</w>": 6078,
      "road</w>": 6079,
      "ara</w>": 6080,
      "sea</w>": 6081,
      "duced</w>": 6082,
      "Whether</w>": 6083,
      "हीम</w>": 6084,
      "डॉ": 6085,
      "sym": 6086,
      "creation</w>": 6087,
      "justice</w>": 6088,
      "गो</w>": 6089,
      "फरमा": 6090,
      "preme</w>": 6091,
      "independ": 6092,
      "वेयर</w>": 6093,
      "स्पष्ट": 6094,
      "उपस्थित</w>": 6095,
      "wife</w>": 6096,
      "आयोग</w>": 6097,
      "षक</w>": 6098,
      "thre": 6099,
      "लिका</w>": 6100,
      "आते</w>": 6101,
      "बैठक</w>": 6102,
      "लाना</w>": 6103,
      "idden</w>": 6104,
      "निर्भर</w>": 6105,
      "ews</w>": 6106,
      "access</w>": 6107,
      "Even</w>": 6108,
      "कार्ड</w>": 6109,
      "परिवर्त": 6110,
      "aper</w>": 6111,
      "woman</w>": 6112,
      "लग</w>": 6113,
      "सीमित</w>": 6114,
      "माने</w>": 6115,
      "समस्या": 6116,
      "temple</w>": 6117,
      "di</w>": 6118,
      "वं": 6119,
      "छोड़कर</w>": 6120,
      "समृ": 6121,
      "2017</w>": 6122,
      "Error</w>": 6123,
      "angels</w>": 6124,
      "rights</w>": 6125,
      "धों</w>": 6126,
      "eps</w>": 6127,
      "रखी</w>": 6128,
      "elling</w>": 6129,
      "नेट</w>": 6130,
      "घोष": 6131,
      "particular</w>": 6132,
      "tell</w>": 6133,
      "शैली</w>": 6134,
      "ff</w>": 6135,
      "regist": 6136,
      "ousness</w>": 6137,
      "Cannot</w>": 6138,
      "नेटवर्क</w>": 6139,
      "हार्": 6140,
      "tains</w>": 6141,
      "बन्दों</w>": 6142,
      "स्त्री</w>": 6143,
      "ऑफ</w>": 6144,
      "चयन</w>": 6145,
      "एफ": 6146,
      "आस्": 6147,
      "writing</w>": 6148,
      "चिकित्सा</w>": 6149,
      "Nar": 6150,
      "dw": 6151,
      "entire</w>": 6152,
      "ग़र": 6153,
      "People</w>": 6154,
      "six</w>": 6155,
      "opens</w>": 6156,
      "sa</w>": 6157,
      "gic</w>": 6158,
      "भार</w>": 6159,
      "Pal": 6160,
      "ठहरा": 6161,
      "adem": 6162,
      "इला": 6163,
      "संस्करण</w>": 6164,
      "ड्र": 6165,
      "अगले</w>": 6166,
      "बताया</w>": 6167,
      "ires</w>": 6168,
      "दित</w>": 6169,
      "त्री</w>": 6170,
      "Cer": 6171,
      "DA": 6172,
      "ishes</w>": 6173,
      "integr": 6174,
      "anti": 6175,
      "aged</w>": 6176,
      "धार्मिक</w>": 6177,
      "ww": 6178,
      "रोज": 6179,
      "लम्": 6180,
      "ृत</w>": 6181,
      "ख़बर</w>": 6182,
      "भागी": 6183,
      "programm": 6184,
      "लेना</w>": 6185,
      "contact</w>": 6186,
      "democ": 6187,
      "धीरे</w>": 6188,
      "adop": 6189,
      "wrong": 6190,
      "witness</w>": 6191,
      "tan": 6192,
      "emed</w>": 6193,
      "outside</w>": 6194,
      "गतिवि": 6195,
      "Him": 6196,
      "नो</w>": 6197,
      "वीडियो</w>": 6198,
      "किन": 6199,
      "क्ष्": 6200,
      "च्छेद</w>": 6201,
      "lead</w>": 6202,
      "एफ</w>": 6203,
      "ori": 6204,
      "नमाज़</w>": 6205,
      "Chi": 6206,
      "रम</w>": 6207,
      "दूरी</w>": 6208,
      "जल्दी</w>": 6209,
      "वित्त</w>": 6210,
      "भोजन</w>": 6211,
      "उम्मी": 6212,
      "नतम</w>": 6213,
      "cles</w>": 6214,
      "रखे</w>": 6215,
      "श्रेणी": 6216,
      "literature</w>": 6217,
      "condition</w>": 6218,
      "अता</w>": 6219,
      "पंजी": 6220,
      "population</w>": 6221,
      "गौ": 6222,
      "प्रयोज": 6223,
      "disease</w>": 6224,
      "सम्मेलन</w>": 6225,
      "lic": 6226,
      "आशा</w>": 6227,
      "चारियों</w>": 6228,
      "www</w>": 6229,
      "कवि</w>": 6230,
      "Public</w>": 6231,
      "खड़े</w>": 6232,
      "आउ": 6233,
      "ढू": 6234,
      "distri": 6235,
      "Indu": 6236,
      "ham</w>": 6237,
      "distribu": 6238,
      "प्रदर्शन</w>": 6239,
      "र्थियों</w>": 6240,
      "पसंद</w>": 6241,
      "placed</w>": 6242,
      "user</w>": 6243,
      "जनक</w>": 6244,
      "कालीन</w>": 6245,
      "trust</w>": 6246,
      "आकाश</w>": 6247,
      "सोच": 6248,
      "संशोधन</w>": 6249,
      "Sur": 6250,
      "जिला</w>": 6251,
      "sust": 6252,
      "prec": 6253,
      "ari</w>": 6254,
      "क्टर</w>": 6255,
      "saw</w>": 6256,
      "fem": 6257,
      "val</w>": 6258,
      "लम</w>": 6259,
      "function</w>": 6260,
      "जीव": 6261,
      "mission": 6262,
      "ced</w>": 6263,
      ".,</w>": 6264,
      "रिया": 6265,
      "कनेक्": 6266,
      "manu": 6267,
      "गर्इ</w>": 6268,
      "व्": 6269,
      "ूप</w>": 6270,
      "अधिकारियों</w>": 6271,
      "क्रमों</w>": 6272,
      "एजे": 6273,
      "बाल</w>": 6274,
      "नैतिक</w>": 6275,
      "yle</w>": 6276,
      "केट</w>": 6277,
      "सम्मान</w>": 6278,
      "29</w>": 6279,
      "atic</w>": 6280,
      "खतर": 6281,
      "सख्त</w>": 6282,
      "काओं</w>": 6283,
      "पत्थ": 6284,
      "आत्मा</w>": 6285,
      "supp": 6286,
      "serve</w>": 6287,
      "पॉ": 6288,
      "promise</w>": 6289,
      "ब्याज</w>": 6290,
      "बनाना</w>": 6291,
      "gle</w>": 6292,
      "संस्थानों</w>": 6293,
      "08</w>": 6294,
      "cases</w>": 6295,
      "तुमपर</w>": 6296,
      "dings</w>": 6297,
      "atory</w>": 6298,
      "दर्शा": 6299,
      "programme</w>": 6300,
      "आर्": 6301,
      "arti": 6302,
      "आपका</w>": 6303,
      "atives</w>": 6304,
      "दायत</w>": 6305,
      "चिह्": 6306,
      "Oc": 6307,
      "Shi": 6308,
      "सानों</w>": 6309,
      "अह": 6310,
      "करे": 6311,
      "credit</w>": 6312,
      "less": 6313,
      "हिदायत</w>": 6314,
      "rule</w>": 6315,
      "मित्र</w>": 6316,
      "sistance</w>": 6317,
      "esp": 6318,
      "network</w>": 6319,
      "lations</w>": 6320,
      "न्याया": 6321,
      "intro": 6322,
      "ularly</w>": 6323,
      "¤²</w>": 6324,
      "मिलता</w>": 6325,
      "Jan": 6326,
      "र्थी</w>": 6327,
      "राम": 6328,
      "Fo": 6329,
      "ug": 6330,
      "resources</w>": 6331,
      "उठा</w>": 6332,
      "कदम</w>": 6333,
      "innov": 6334,
      "वैश्": 6335,
      "than": 6336,
      "active</w>": 6337,
      "गुण</w>": 6338,
      "cle</w>": 6339,
      "constitu": 6340,
      "immedi": 6341,
      "2007</w>": 6342,
      "ठी</w>": 6343,
      "ण्ड": 6344,
      "बह</w>": 6345,
      "oph": 6346,
      "almost</w>": 6347,
      "कार्यों</w>": 6348,
      "इबरा": 6349,
      "raised</w>": 6350,
      "ansk": 6351,
      "नसी": 6352,
      "सच्चे</w>": 6353,
      "box</w>": 6354,
      "तुममें</w>": 6355,
      "include</w>": 6356,
      "80</w>": 6357,
      "page</w>": 6358,
      "nel</w>": 6359,
      "mode</w>": 6360,
      "bs</w>": 6361,
      "ंख": 6362,
      "हार": 6363,
      "खाने</w>": 6364,
      "hood</w>": 6365,
      "क्रे": 6366,
      "1961</w>": 6367,
      "हालत</w>": 6368,
      "ग़रज़</w>": 6369,
      "एशिया</w>": 6370,
      "निर्दे": 6371,
      "Not</w>": 6372,
      "नियमित</w>": 6373,
      "चालित</w>": 6374,
      "revel": 6375,
      "Have</w>": 6376,
      "2012</w>": 6377,
      "alism</w>": 6378,
      "enty</w>": 6379,
      "ज़ार</w>": 6380,
      "ao": 6381,
      "कठ": 6382,
      "sugg": 6383,
      "earlier</w>": 6384,
      "continue</w>": 6385,
      "investment</w>": 6386,
      "earing</w>": 6387,
      "bran": 6388,
      "मजबूत</w>": 6389,
      "Section</w>": 6390,
      "प्रधान</w>": 6391,
      "करनी</w>": 6392,
      "disbelieve</w>": 6393,
      "global</w>": 6394,
      "2019</w>": 6395,
      "occ": 6396,
      "Afric": 6397,
      "firm</w>": 6398,
      "कंप्यूटर</w>": 6399,
      "पांच</w>": 6400,
      "Mukherjee</w>": 6401,
      "search</w>": 6402,
      "आकर्": 6403,
      "Why</w>": 6404,
      "deny</w>": 6405,
      "receive</w>": 6406,
      "pil": 6407,
      "कत</w>": 6408,
      "जाये</w>": 6409,
      "etting</w>": 6410,
      "तया</w>": 6411,
      "रऔ": 6412,
      "उन्हीं</w>": 6413,
      "उपभो": 6414,
      "शैतान</w>": 6415,
      "Manag": 6416,
      "इबराहीम</w>": 6417,
      "स्ता</w>": 6418,
      "प्रणब</w>": 6419,
      "Mahar": 6420,
      "There": 6421,
      "run</w>": 6422,
      "अध्यक्ष</w>": 6423,
      "doubt</w>": 6424,
      "kept</w>": 6425,
      "अंग": 6426,
      "छू": 6427,
      "एक्स</w>": 6428,
      "gment</w>": 6429,
      "exten": 6430,
      "वर्णन</w>": 6431,
      "sev": 6432,
      "ैल</w>": 6433,
      "करू": 6434,
      "pril</w>": 6435,
      "April</w>": 6436,
      "ID</w>": 6437,
      "मक्": 6438,
      "tware</w>": 6439,
      "दिलों</w>": 6440,
      "ड़ि": 6441,
      "signific": 6442,
      "इल</w>": 6443,
      "प्रतिष्ठ": 6444,
      "titu": 6445,
      "alay": 6446,
      "anced</w>": 6447,
      "erve</w>": 6448,
      "संस्कृत</w>": 6449,
      "experience</w>": 6450,
      "बख्": 6451,
      "emer": 6452,
      "board</w>": 6453,
      "cra": 6454,
      "Pun": 6455,
      "देखो</w>": 6456,
      "attle</w>": 6457,
      "From</w>": 6458,
      "price</w>": 6459,
      "foo": 6460,
      "न्द्र</w>": 6461,
      "बिल्कुल</w>": 6462,
      "प्राचीन</w>": 6463,
      "मीर</w>": 6464,
      "जरूरी</w>": 6465,
      "युक्ति</w>": 6466,
      "स्थल</w>": 6467,
      "पहुंच</w>": 6468,
      "Merciful</w>": 6469,
      "समझते</w>": 6470,
      "Fi": 6471,
      "नियमों</w>": 6472,
      "across</w>": 6473,
      "Institute</w>": 6474,
      "products</w>": 6475,
      "transp": 6476,
      "urrec": 6477,
      "science</w>": 6478,
      "lost</w>": 6479,
      "alo": 6480,
      "म्भ</w>": 6481,
      "टिश</w>": 6482,
      "fall</w>": 6483,
      "personal</w>": 6484,
      "शक्ति": 6485,
      "long": 6486,
      "दबा": 6487,
      "alls</w>": 6488,
      "पट्टी</w>": 6489,
      "list": 6490,
      "पाक</w>": 6491,
      "ष्ट्र": 6492,
      "guided</w>": 6493,
      "transfer</w>": 6494,
      "समझा</w>": 6495,
      "रहना</w>": 6496,
      "सिस्ट": 6497,
      "श्रेणीः": 6498,
      "जाय</w>": 6499,
      "मेहर": 6500,
      "प्ता": 6501,
      "United</w>": 6502,
      ");</w>": 6503,
      "brother</w>": 6504,
      "Sabha</w>": 6505,
      "फॉ": 6506,
      "stone</w>": 6507,
      "terror": 6508,
      "enough</w>": 6509,
      "बां": 6510,
      "endar</w>": 6511,
      "डेटा</w>": 6512,
      "dead</w>": 6513,
      "कट्": 6514,
      "2006</w>": 6515,
      "inking</w>": 6516,
      "district</w>": 6517,
      "बिज": 6518,
      "अवस्था</w>": 6519,
      "संपाद": 6520,
      "मानते</w>": 6521,
      "ताल</w>": 6522,
      "अधिकांश</w>": 6523,
      "मश": 6524,
      "enem": 6525,
      "स्वामी</w>": 6526,
      "प्रमाण</w>": 6527,
      "वासी</w>": 6528,
      "uration</w>": 6529,
      "पल": 6530,
      "test</w>": 6531,
      "लगी</w>": 6532,
      "\",</w>": 6533,
      "खाना</w>": 6534,
      "उल": 6535,
      "recogni": 6536,
      "शीघ्र</w>": 6537,
      "गुणवत्ता</w>": 6538,
      "pic": 6539,
      "Pur": 6540,
      "श्रम</w>": 6541,
      "private</w>": 6542,
      "व्यय</w>": 6543,
      "High</w>": 6544,
      "projects</w>": 6545,
      "seven</w>": 6546,
      "स्क्र": 6547,
      "फोन</w>": 6548,
      "ब्रिटिश</w>": 6549,
      "टना</w>": 6550,
      "वहन</w>": 6551,
      "एं": 6552,
      "नाक</w>": 6553,
      "signed</w>": 6554,
      "room</w>": 6555,
      "लघ": 6556,
      "ऊं": 6557,
      "पहुँचा</w>": 6558,
      "भूति</w>": 6559,
      "ock</w>": 6560,
      "शताब्दी</w>": 6561,
      "happy</w>": 6562,
      "torment</w>": 6563,
      "ically</w>": 6564,
      "preci": 6565,
      "treat": 6566,
      "farmers</w>": 6567,
      "रहती</w>": 6568,
      "्यता</w>": 6569,
      "satis": 6570,
      "provision</w>": 6571,
      "सिर</w>": 6572,
      "आपने</w>": 6573,
      "प्रत्यक्ष</w>": 6574,
      "guide</w>": 6575,
      "तारीख</w>": 6576,
      "छोटा</w>": 6577,
      "आदर्": 6578,
      "णीय</w>": 6579,
      "मुस्लिम</w>": 6580,
      "report</w>": 6581,
      "गुना</w>": 6582,
      "esting</w>": 6583,
      "below</w>": 6584,
      "अंग्रेजी</w>": 6585,
      "Pran": 6586,
      "जोड़ें</w>": 6587,
      "करनेवालों</w>": 6588,
      "सचि": 6589,
      "disbelievers</w>": 6590,
      "जरा": 6591,
      "क्षमा</w>": 6592,
      "accept</w>": 6593,
      "\".</w>": 6594,
      "issue</w>": 6595,
      "अपेक्षा</w>": 6596,
      "धर</w>": 6597,
      "influ": 6598,
      "modi": 6599,
      "West</w>": 6600,
      "produce</w>": 6601,
      "legal</w>": 6602,
      "Ti": 6603,
      "places</w>": 6604,
      "hun": 6605,
      "दिक</w>": 6606,
      "अक": 6607,
      "ens": 6608,
      "guar": 6609,
      "विवाह</w>": 6610,
      "समाधान</w>": 6611,
      "सौं": 6612,
      "Board</w>": 6613,
      "astray</w>": 6614,
      "Jud": 6615,
      "डरा": 6616,
      "iddle</w>": 6617,
      "ैव</w>": 6618,
      "किसानों</w>": 6619,
      "spirit</w>": 6620,
      "ex</w>": 6621,
      "gest</w>": 6622,
      "फ़रिश्": 6623,
      "Mem": 6624,
      "ban</w>": 6625,
      "वधान</w>": 6626,
      "अप</w>": 6627,
      "घं": 6628,
      "dow": 6629,
      "indic": 6630,
      "Bu": 6631,
      "दस</w>": 6632,
      "तुलना</w>": 6633,
      "2005</w>": 6634,
      "णु</w>": 6635,
      "रोक</w>": 6636,
      "व्यक्तिगत</w>": 6637,
      "friend": 6638,
      "हालाँकि</w>": 6639,
      "hope</w>": 6640,
      "रहे": 6641,
      "Auth": 6642,
      "Islam</w>": 6643,
      "एन</w>": 6644,
      "actions</w>": 6645,
      "रोजगार</w>": 6646,
      "सांस्": 6647,
      "industrial</w>": 6648,
      "big</w>": 6649,
      "anskrit</w>": 6650,
      "airs</w>": 6651,
      "पे</w>": 6652,
      "बले</w>": 6653,
      "tives</w>": 6654,
      "electr": 6655,
      "विशाल</w>": 6656,
      "जहन्नुम</w>": 6657,
      "र्र": 6658,
      "दर्शी</w>": 6659,
      "तथ": 6660,
      "infra": 6661,
      "मर्श</w>": 6662,
      "East</w>": 6663,
      "टुक": 6664,
      "स्य</w>": 6665,
      "विचारों</w>": 6666,
      "etry</w>": 6667,
      "अनुच्छेद</w>": 6668,
      "लग्": 6669,
      "carried</w>": 6670,
      "estern</w>": 6671,
      "Where</w>": 6672,
      "पुलिस</w>": 6673,
      "mark</w>": 6674,
      "आकाशों</w>": 6675,
      "UN": 6676,
      "संतु": 6677,
      "बुरा": 6678,
      "pped</w>": 6679,
      "detail</w>": 6680,
      "अप्रैल</w>": 6681,
      "rich</w>": 6682,
      "ठा": 6683,
      "्राष्ट्र": 6684,
      "लघु</w>": 6685,
      "परिक</w>": 6686,
      "प्रतिनि": 6687,
      "खर्च</w>": 6688,
      "inning</w>": 6689,
      "बाव": 6690,
      "दाता</w>": 6691,
      "परिषद</w>": 6692,
      "सत्या": 6693,
      "शांति</w>": 6694,
      "rural</w>": 6695,
      "स्तर": 6696,
      "show": 6697,
      "conv": 6698,
      "घोषणा</w>": 6699,
      "र्क</w>": 6700,
      "haps</w>": 6701,
      "Asia</w>": 6702,
      "bear</w>": 6703,
      "exchange</w>": 6704,
      "ators</w>": 6705,
      "फाय": 6706,
      "failed</w>": 6707,
      "environment</w>": 6708,
      "प्रवि": 6709,
      "“%</w>": 6710,
      "ghty</w>": 6711,
      "decided</w>": 6712,
      "Lan": 6713,
      "real</w>": 6714,
      "रखें</w>": 6715,
      "Ak": 6716,
      "जूद</w>": 6717,
      "Sci": 6718,
      "scri": 6719,
      "संसार</w>": 6720,
      "खुलती</w>": 6721,
      "Hindu": 6722,
      "asp": 6723,
      "cut</w>": 6724,
      "anda</w>": 6725,
      "South</w>": 6726,
      "ईश्वर</w>": 6727,
      "lives</w>": 6728,
      "aware</w>": 6729,
      "आंदोलन</w>": 6730,
      "speak</w>": 6731,
      "चम": 6732,
      "wal": 6733,
      "कुफ्": 6734,
      "मौजूदा</w>": 6735,
      "desire</w>": 6736,
      "ATI": 6737,
      "पर्यावरण</w>": 6738,
      "zed</w>": 6739,
      "लेंगे</w>": 6740,
      "uments</w>": 6741,
      "अत्यंत</w>": 6742,
      "सीमा": 6743,
      "built</w>": 6744,
      "spread</w>": 6745,
      "provides</w>": 6746,
      "संचार</w>": 6747,
      "secre": 6748,
      "relating</w>": 6749,
      "played</w>": 6750,
      "प्रयोजनों</w>": 6751,
      "states</w>": 6752,
      "Islam": 6753,
      "्राष्ट्रीय</w>": 6754,
      "laun": 6755,
      "इस्लाम</w>": 6756,
      "गलत</w>": 6757,
      "बों</w>": 6758,
      "प्रदर्शित</w>": 6759,
      "remain</w>": 6760,
      "रऔन</w>": 6761,
      "mus": 6762,
      "तमा": 6763,
      "भव": 6764,
      "ste</w>": 6765,
      "fight</w>": 6766,
      "पश्चात्</w>": 6767,
      "अनिवार्य</w>": 6768,
      "Add</w>": 6769,
      "महीने</w>": 6770,
      "जहा": 6771,
      "institution</w>": 6772,
      "प्रतीक</w>": 6773,
      "Income</w>": 6774,
      "प्ले": 6775,
      "मार्च</w>": 6776,
      "economy</w>": 6777,
      "सम्मिलित</w>": 6778,
      "चलते</w>": 6779,
      "झग": 6780,
      "reach</w>": 6781,
      "कात</w>": 6782,
      "गिरोह</w>": 6783,
      "righteous</w>": 6784,
      "material</w>": 6785,
      "विंडों</w>": 6786,
      "Sar": 6787,
      "मिली</w>": 6788,
      "09</w>": 6789,
      "Gur": 6790,
      "क्री</w>": 6791,
      "केंद्र": 6792,
      "दायित्व</w>": 6793,
      "foc": 6794,
      "न्द": 6795,
      "कन</w>": 6796,
      "ites</w>": 6797,
      "uty</w>": 6798,
      "decision</w>": 6799,
      "published</w>": 6800,
      "Brah": 6801,
      "Commission</w>": 6802,
      "behalf</w>": 6803,
      "strength</w>": 6804,
      "Fil": 6805,
      "सम्बन्ध</w>": 6806,
      "third</w>": 6807,
      "ंबर</w>": 6808,
      "इंटर": 6809,
      "रिए</w>": 6810,
      "मानव": 6811,
      "manufac": 6812,
      "TO</w>": 6813,
      "actually</w>": 6814,
      "वाक़ि": 6815,
      "served</w>": 6816,
      "groups</w>": 6817,
      "character</w>": 6818,
      "cut": 6819,
      "turns</w>": 6820,
      "custom": 6821,
      "सांस्कृतिक</w>": 6822,
      "Educ": 6823,
      "dated</w>": 6824,
      "arri": 6825,
      "मिट्टी</w>": 6826,
      "संकेत</w>": 6827,
      "jected</w>": 6828,
      "घरों</w>": 6829,
      "Chil": 6830,
      "सदैव</w>": 6831,
      "cy": 6832,
      "ensure</w>": 6833,
      "निदेशक</w>": 6834,
      "ट्रा": 6835,
      "cho": 6836,
      "prayer</w>": 6837,
      "Val": 6838,
      "issues</w>": 6839,
      "अफ्री": 6840,
      "Technology</w>": 6841,
      "video</w>": 6842,
      "यूनि": 6843,
      "Comment</w>": 6844,
      "Commission": 6845,
      "गुनाह</w>": 6846,
      "care": 6847,
      "load</w>": 6848,
      "color</w>": 6849,
      "ecially</w>": 6850,
      "gation</w>": 6851,
      "आरो": 6852,
      "post</w>": 6853,
      "CH": 6854,
      "इंडिया</w>": 6855,
      "hear</w>": 6856,
      "Pan": 6857,
      "चीज़": 6858,
      "add</w>": 6859,
      "नये</w>": 6860,
      "उल्लेख</w>": 6861,
      "एक्स": 6862,
      "दंड</w>": 6863,
      "belief</w>": 6864,
      "asses</w>": 6865,
      "2001</w>": 6866,
      "तकनीकी</w>": 6867,
      "ene": 6868,
      "prepared</w>": 6869,
      "leaders</w>": 6870,
      "निशानियाँ</w>": 6871,
      "entary</w>": 6872,
      "ign": 6873,
      "02</w>": 6874,
      "IN</w>": 6875,
      "टर्": 6876,
      "जिम्मे": 6877,
      "लगाया</w>": 6878,
      "March</w>": 6879,
      "कठिन</w>": 6880,
      "ँगा</w>": 6881,
      "मुझ": 6882,
      "युवा</w>": 6883,
      "क्षेत्रीय</w>": 6884,
      "news</w>": 6885,
      "Republic</w>": 6886,
      "ईसा</w>": 6887,
      "साफ़</w>": 6888,
      "demand</w>": 6889,
      "SE": 6890,
      "ping</w>": 6891,
      "तेजी</w>": 6892,
      "काना</w>": 6893,
      "load": 6894,
      "नियत</w>": 6895,
      "whoever</w>": 6896,
      "चं": 6897,
      "पहला</w>": 6898,
      "istic</w>": 6899,
      "जिसको</w>": 6900,
      "presid": 6901,
      "Sanskrit</w>": 6902,
      "situation</w>": 6903,
      "fare</w>": 6904,
      "रहेगा</w>": 6905,
      "difficult</w>": 6906,
      "निकाल</w>": 6907,
      "Ram": 6908,
      "टो</w>": 6909,
      "पहुँच</w>": 6910,
      "Leg": 6911,
      "फ़ाइ": 6912,
      "correc": 6913,
      "तरफ़</w>": 6914,
      "ney</w>": 6915,
      "especially</w>": 6916,
      "स्म</w>": 6917,
      "स्टर</w>": 6918,
      "takes</w>": 6919,
      "Pranab</w>": 6920,
      "फ़ै": 6921,
      "stage</w>": 6922,
      "river</w>": 6923,
      "इनके</w>": 6924,
      "अंदर</w>": 6925,
      "दीर्": 6926,
      "ables</w>": 6927,
      "ªà</w>": 6928,
      "विज": 6929,
      "inion</w>": 6930,
      "unbelievers</w>": 6931,
      "ounded</w>": 6932,
      "लियन</w>": 6933,
      "super": 6934,
      "rules</w>": 6935,
      "original</w>": 6936,
      "direct</w>": 6937,
      "covered</w>": 6938,
      "Char": 6939,
      "Chief</w>": 6940,
      "Mis": 6941,
      "बढ़ाने</w>": 6942,
      "गंभी": 6943,
      "besides</w>": 6944,
      "ials</w>": 6945,
      "Agr": 6946,
      "Accoun": 6947,
      "dispu": 6948,
      "feel</w>": 6949,
      "नेता</w>": 6950,
      "study</w>": 6951,
      "relations</w>": 6952,
      "gir": 6953,
      "Are</w>": 6954,
      "Phar": 6955,
      "बुरी</w>": 6956,
      "iture</w>": 6957,
      "खोल</w>": 6958,
      "easy</w>": 6959,
      "रद्": 6960,
      "crore</w>": 6961,
      "DE": 6962,
      "ograph": 6963,
      "कश्": 6964,
      "मज़": 6965,
      "physical</w>": 6966,
      "प्राप्ति</w>": 6967,
      "एँगे</w>": 6968,
      "item</w>": 6969,
      "lam": 6970,
      "Their</w>": 6971,
      "Use</w>": 6972,
      "मेंट</w>": 6973,
      "',</w>": 6974,
      "friends</w>": 6975,
      "values</w>": 6976,
      "brary</w>": 6977,
      "एह": 6978,
      "आंक": 6979,
      "45</w>": 6980,
      "विरोध</w>": 6981,
      "cies</w>": 6982,
      "टक": 6983,
      "birth</w>": 6984,
      "front</w>": 6985,
      "कहेंगे</w>": 6986,
      "success</w>": 6987,
      "versi": 6988,
      "oose</w>": 6989,
      "स्थितियों</w>": 6990,
      "वस्तुओं</w>": 6991,
      "move</w>": 6992,
      "समी": 6993,
      "god</w>": 6994,
      "प्रशं": 6995,
      "perform": 6996,
      "निग": 6997,
      "ilos": 6998,
      "साक्ष": 6999,
      "ada</w>": 7000,
      "पृष्ठ": 7001,
      "स्मृ": 7002,
      "शैक्ष": 7003,
      "ste": 7004,
      "प्रसिद्ध</w>": 7005,
      "ries</w>": 7006,
      "dered</w>": 7007,
      "accepted</w>": 7008,
      "05</w>": 7009,
      "tel": 7010,
      "योगों</w>": 7011,
      "mod": 7012,
      "यथा</w>": 7013,
      "wro": 7014,
      "मध्य": 7015,
      "veness</w>": 7016,
      "iii</w>": 7017,
      "atures</w>": 7018,
      "जीवित</w>": 7019,
      "die</w>": 7020,
      "आपस</w>": 7021,
      "गिज़</w>": 7022,
      "concerned</w>": 7023,
      "प्रशासन</w>": 7024,
      "मालिक</w>": 7025,
      "पत्थर</w>": 7026,
      "uran</w>": 7027,
      "पुकार": 7028,
      "त्तर</w>": 7029,
      "लेता</w>": 7030,
      "2008</w>": 7031,
      "हीन</w>": 7032,
      "लेक्": 7033,
      "टेड</w>": 7034,
      "sound</w>": 7035,
      "जिनका</w>": 7036,
      "details</w>": 7037,
      "opportunity</w>": 7038,
      "रुपये</w>": 7039,
      "भली</w>": 7040,
      "फ़र": 7041,
      "flow</w>": 7042,
      "भाषण</w>": 7043,
      "dig": 7044,
      "ghts</w>": 7045,
      "Comp": 7046,
      "flow": 7047,
      "scre": 7048,
      "augh": 7049,
      "offer": 7050,
      "eph": 7051,
      "नृ": 7052,
      "jar": 7053,
      "व्याव": 7054,
      "संगत</w>": 7055,
      "क़ुरान</w>": 7056,
      "बनाकर</w>": 7057,
      "anded</w>": 7058,
      "encoura": 7059,
      "HT": 7060,
      "संभा": 7061,
      "पड़ता</w>": 7062,
      "ंभिक</w>": 7063,
      "वैश्विक</w>": 7064,
      "कथ": 7065,
      "सबको</w>": 7066,
      "करी</w>": 7067,
      "tro": 7068,
      "आत</w>": 7069,
      "इतनी</w>": 7070,
      "देखें</w>": 7071,
      "नाई</w>": 7072,
      "person": 7073,
      "अर्थव्यवस्था</w>": 7074,
      "Ram</w>": 7075,
      "शुभ": 7076,
      "power": 7077,
      "बावजूद</w>": 7078,
      "तला": 7079,
      "करी": 7080,
      "वाता": 7081,
      "status</w>": 7082,
      "agreement</w>": 7083,
      "letter</w>": 7084,
      "erc": 7085,
      "महिलाओं</w>": 7086,
      "International</w>": 7087,
      "un</w>": 7088,
      "providing</w>": 7089,
      "अंतरराष्ट्रीय</w>": 7090,
      "विनि": 7091,
      "शाह</w>": 7092,
      "accord": 7093,
      "इजरा": 7094,
      "ade</w>": 7095,
      "tification</w>": 7096,
      "अभ": 7097,
      "हिमा": 7098,
      "apply</w>": 7099,
      "इस्ला": 7100,
      "arch": 7101,
      "लाभ": 7102,
      "os</w>": 7103,
      "itary</w>": 7104,
      "वार्षिक</w>": 7105,
      "हानि</w>": 7106,
      "नसीहत</w>": 7107,
      "बढ़ावा</w>": 7108,
      "figure</w>": 7109,
      "ढां": 7110,
      "देव</w>": 7111,
      "Service</w>": 7112,
      "संघर्ष</w>": 7113,
      "wrote</w>": 7114,
      "patient</w>": 7115,
      "सिस्टम</w>": 7116,
      "vol": 7117,
      "हरगिज़</w>": 7118,
      "During</w>": 7119,
      "नेवालों</w>": 7120,
      "एल": 7121,
      "ishing</w>": 7122,
      "Lo</w>": 7123,
      "पश्चिमी</w>": 7124,
      "evidence</w>": 7125,
      "appe": 7126,
      "बिल</w>": 7127,
      "Fun": 7128,
      "May</w>": 7129,
      "dd": 7130,
      "assu": 7131,
      "caused</w>": 7132,
      "चढ़": 7133,
      "ंज</w>": 7134,
      "मन्": 7135,
      "मिलने</w>": 7136,
      "awa": 7137,
      "hus": 7138,
      "reached</w>": 7139,
      "execu": 7140,
      "increased</w>": 7141,
      "ships</w>": 7142,
      "भेज</w>": 7143,
      "पंजा": 7144,
      "साद</w>": 7145,
      "गांव</w>": 7146,
      "gone</w>": 7147,
      "भला</w>": 7148,
      "similar</w>": 7149,
      "प्राय": 7150,
      "facilities</w>": 7151,
      "great": 7152,
      "sun</w>": 7153,
      "कार्र": 7154,
      "Category</w>": 7155,
      "ffer</w>": 7156,
      "दृष्टिकोण</w>": 7157,
      "arrang": 7158,
      "While</w>": 7159,
      "प्रयासों</w>": 7160,
      "विनिर्दिष्ट</w>": 7161,
      "born</w>": 7162,
      "ज्ञापन</w>": 7163,
      "plan</w>": 7164,
      "वेद": 7165,
      "मंड": 7166,
      "तल</w>": 7167,
      "becomes</w>": 7168,
      "विद्यु": 7169,
      "नाम": 7170,
      "plus</w>": 7171,
      "instead</w>": 7172,
      "regard</w>": 7173,
      "उर्": 7174,
      "साब</w>": 7175,
      "बिजली</w>": 7176,
      "sh</w>": 7177,
      "सव</w>": 7178,
      "लाता</w>": 7179,
      "employment</w>": 7180,
      "अधिकतर</w>": 7181,
      "डॉ</w>": 7182,
      "सड़": 7183,
      "न्याय</w>": 7184,
      "ecting</w>": 7185,
      "समर्": 7186,
      "cultural</w>": 7187,
      "thereof</w>": 7188,
      "prove</w>": 7189,
      "पीठ</w>": 7190,
      "..</w>": 7191,
      "nar": 7192,
      "manif": 7193,
      "illing</w>": 7194,
      "हस्ताक्षर</w>": 7195,
      "एका": 7196,
      "Tur": 7197,
      "dian</w>": 7198,
      "mar</w>": 7199,
      "planation</w>": 7200,
      "docum": 7201,
      "पद्धति</w>": 7202,
      "urrection</w>": 7203,
      "प्रयुक्त</w>": 7204,
      "रोज़ी</w>": 7205,
      "बनाई</w>": 7206,
      "पहुंच": 7207,
      "लेखक</w>": 7208,
      "धो": 7209,
      "राब</w>": 7210,
      "पान</w>": 7211,
      "Ho": 7212,
      "bit</w>": 7213,
      "approach</w>": 7214,
      "मूल्या": 7215,
      "अधिकतम</w>": 7216,
      "yers</w>": 7217,
      "lay</w>": 7218,
      "names</w>": 7219,
      "बित</w>": 7220,
      "वाहि": 7221,
      "died</w>": 7222,
      "bul": 7223,
      "infrastructure</w>": 7224,
      "पाए</w>": 7225,
      "क़रीब</w>": 7226,
      "pho": 7227,
      "Kash": 7228,
      "wide</w>": 7229,
      "पड़</w>": 7230,
      "रौ": 7231,
      "सामान</w>": 7232,
      "न्ट</w>": 7233,
      "खाद्य</w>": 7234,
      "Pat": 7235,
      "हिसाब</w>": 7236,
      "morning</w>": 7237,
      "corpor": 7238,
      "importance</w>": 7239,
      "Hereafter</w>": 7240,
      "भरो": 7241,
      "began</w>": 7242,
      "विस्तृत</w>": 7243,
      "IT</w>": 7244,
      "abled</w>": 7245,
      "हालांकि</w>": 7246,
      "yourselves</w>": 7247,
      "200</w>": 7248,
      "ज़रु": 7249,
      "परस्": 7250,
      "Cop": 7251,
      "दिये</w>": 7252,
      "air": 7253,
      "bey": 7254,
      "bun": 7255,
      "आस": 7256,
      "unless</w>": 7257,
      "भेद</w>": 7258,
      "belongs</w>": 7259,
      "expla": 7260,
      "चिन्": 7261,
      "शख़्": 7262,
      "tton</w>": 7263,
      "programmes</w>": 7264,
      "सज": 7265,
      "rather</w>": 7266,
      "sof": 7267,
      "दिखाया</w>": 7268,
      "stem</w>": 7269,
      "ounds</w>": 7270,
      "सरक": 7271,
      "न्वे": 7272,
      "unit</w>": 7273,
      "responsible</w>": 7274,
      "perf": 7275,
      "500</w>": 7276,
      "खी": 7277,
      "हृदय</w>": 7278,
      "रक्त</w>": 7279,
      "Officer</w>": 7280,
      "हिर</w>": 7281,
      "अंग</w>": 7282,
      "lik": 7283,
      "gain": 7284,
      "सूक्ष्": 7285,
      "तर्क</w>": 7286,
      "असफल</w>": 7287,
      "Progra": 7288,
      "सलाह</w>": 7289,
      "उद्य": 7290,
      "2002</w>": 7291,
      "aver": 7292,
      "dru": 7293,
      "poet</w>": 7294,
      "Eng": 7295,
      "मार्गदर्शन</w>": 7296,
      "कहानी</w>": 7297,
      "ode</w>": 7298,
      "record</w>": 7299,
      "effective</w>": 7300,
      "ck": 7301,
      "निर्देश</w>": 7302,
      "प्राप्": 7303,
      "Pak": 7304,
      "estiv": 7305,
      "conver": 7306,
      "Commissioner</w>": 7307,
      "beyond</w>": 7308,
      "माँ</w>": 7309,
      "बूल</w>": 7310,
      "अपील</w>": 7311,
      "कल्या": 7312,
      "ingu": 7313,
      "समक्ष</w>": 7314,
      "sky</w>": 7315,
      "sanc": 7316,
      "specific</w>": 7317,
      "Bas": 7318,
      "fund</w>": 7319,
      "Africa</w>": 7320,
      "विरो": 7321,
      "Cur": 7322,
      "सहम": 7323,
      "75</w>": 7324,
      "sons</w>": 7325,
      "prescribed</w>": 7326,
      "normal</w>": 7327,
      "दूर": 7328,
      "fort": 7329,
      "सूस</w>": 7330,
      "princi": 7331,
      "प्रभु": 7332,
      "संग्रह</w>": 7333,
      "च्छ</w>": 7334,
      "relev": 7335,
      "शुभकाम": 7336,
      "“”</w>": 7337,
      "histor": 7338,
      "band</w>": 7339,
      "निप": 7340,
      "शक़</w>": 7341,
      "संलग्": 7342,
      "ulture</w>": 7343,
      "Sw": 7344,
      "device</w>": 7345,
      "strument</w>": 7346,
      "World</w>": 7347,
      "Secret": 7348,
      "चरि": 7349,
      "fif": 7350,
      "shown</w>": 7351,
      "परा</w>": 7352,
      "पैग़म्बर</w>": 7353,
      "¤®</w>": 7354,
      "पाई</w>": 7355,
      "felt</w>": 7356,
      "अवै": 7357,
      "शु</w>": 7358,
      "gets</w>": 7359,
      "वें</w>": 7360,
      "--</w>": 7361,
      "ago</w>": 7362,
      "AL": 7363,
      "cast</w>": 7364,
      "न्वयन</w>": 7365,
      "अल</w>": 7366,
      "मिलकर</w>": 7367,
      "Of</w>": 7368,
      "enting</w>": 7369,
      "Krish": 7370,
      "हरों</w>": 7371,
      "music</w>": 7372,
      "आयु</w>": 7373,
      "San": 7374,
      "enter": 7375,
      "नागरिक</w>": 7376,
      "दै": 7377,
      "फ्रे": 7378,
      "भंड": 7379,
      "ils</w>": 7380,
      "करनेवाला</w>": 7381,
      "07</w>": 7382,
      "फ़ी</w>": 7383,
      "क्षेप</w>": 7384,
      "heard</w>": 7385,
      "खिल</w>": 7386,
      "Save</w>": 7387,
      "bit": 7388,
      "मानता</w>": 7389,
      "idea</w>": 7390,
      "Ge": 7391,
      "ंसी</w>": 7392,
      "मिला": 7393,
      "event</w>": 7394,
      "बहा": 7395,
      "refl": 7396,
      "सामना</w>": 7397,
      "check</w>": 7398,
      "खे</w>": 7399,
      "कुंजी</w>": 7400,
      "कारि": 7401,
      "powers</w>": 7402,
      "स्पष्टीकरण</w>": 7403,
      "नम</w>": 7404,
      "accounts</w>": 7405,
      "ट्रै": 7406,
      "Hell</w>": 7407,
      "स्पर्": 7408,
      "तेल</w>": 7409,
      "scrip": 7410,
      "बचा</w>": 7411,
      "languages</w>": 7412,
      "sper": 7413,
      "returned</w>": 7414,
      "Gujar": 7415,
      "han": 7416,
      "folk</w>": 7417,
      "कटौती</w>": 7418,
      "option</w>": 7419,
      "उपयुक्त</w>": 7420,
      "वायदा</w>": 7421,
      "इच्छा</w>": 7422,
      "यूशन</w>": 7423,
      "खड़ा</w>": 7424,
      "03</w>": 7425,
      "वितरण</w>": 7426,
      "सागर</w>": 7427,
      "portion</w>": 7428,
      "शुद्ध</w>": 7429,
      "dy": 7430,
      "श्रेणी</w>": 7431,
      "spirit": 7432,
      "युग</w>": 7433,
      "तव्य</w>": 7434,
      "eping</w>": 7435,
      "forb": 7436,
      "उपबंध</w>": 7437,
      "understanding</w>": 7438,
      "dam": 7439,
      "activity</w>": 7440,
      "chasti": 7441,
      "90</w>": 7442,
      "देवी</w>": 7443,
      "docu": 7444,
      "पाते</w>": 7445,
      "rivers</w>": 7446,
      "ग्रे": 7447,
      "Spea": 7448,
      "ancient</w>": 7449,
      "document</w>": 7450,
      "कारबार</w>": 7451,
      ")।</w>": 7452,
      "ER</w>": 7453,
      "taining</w>": 7454,
      "law": 7455,
      "gain</w>": 7456,
      "परस्पर</w>": 7457,
      "तत्व</w>": 7458,
      "कर्मचारियों</w>": 7459,
      ".'</w>": 7460,
      "सज़ा</w>": 7461,
      "किस्तान</w>": 7462,
      "गतिविधियों</w>": 7463,
      "खर</w>": 7464,
      "पां": 7465,
      "35</w>": 7466,
      "ग़</w>": 7467,
      "हिन्दू</w>": 7468,
      "bon": 7469,
      "anal": 7470,
      "Grou": 7471,
      "Sam": 7472,
      "लिखने</w>": 7473,
      "शय</w>": 7474,
      "डिंग</w>": 7475,
      "Wise</w>": 7476,
      "समुद्र</w>": 7477,
      "अके": 7478,
      "र्ण</w>": 7479,
      "Me</w>": 7480,
      "ram</w>": 7481,
      "ट्रे": 7482,
      "instrument</w>": 7483,
      "comb": 7484,
      "दास</w>": 7485,
      "तृत्व</w>": 7486,
      "काव्य</w>": 7487,
      "tered</w>": 7488,
      "चलता</w>": 7489,
      "iter": 7490,
      "setting</w>": 7491,
      "देय</w>": 7492,
      "शिका</w>": 7493,
      "कूट": 7494,
      "पहुँच": 7495,
      "Trans": 7496,
      "Education</w>": 7497,
      "style</w>": 7498,
      "sian</w>": 7499,
      "नामक</w>": 7500,
      "ड़ने</w>": 7501,
      "sum</w>": 7502,
      "विश्ले": 7503,
      "Quran</w>": 7504,
      "gro": 7505,
      "तय</w>": 7506,
      "‍य</w>": 7507,
      "ग्रं": 7508,
      "ley</w>": 7509,
      "द्वीप</w>": 7510,
      "उसपर</w>": 7511,
      "goes</w>": 7512,
      "दृढ़</w>": 7513,
      "daugh": 7514,
      "sement</w>": 7515,
      "mag": 7516,
      "धानी</w>": 7517,
      "बीमा</w>": 7518,
      "खोलें</w>": 7519,
      "ior</w>": 7520,
      "आसान</w>": 7521,
      "तरिक</w>": 7522,
      "मानी</w>": 7523,
      "rain</w>": 7524,
      "recor": 7525,
      "वाओं</w>": 7526,
      "व्यवसा": 7527,
      "इबाद": 7528,
      "काफ़ि": 7529,
      "friend</w>": 7530,
      "टवेयर</w>": 7531,
      "exce": 7532,
      "जानी</w>": 7533,
      "dn</w>": 7534,
      "जर्": 7535,
      "हाथों</w>": 7536,
      "कोड</w>": 7537,
      "added</w>": 7538,
      "lands</w>": 7539,
      "program</w>": 7540,
      "मतलब</w>": 7541,
      "houses</w>": 7542,
      "Centre</w>": 7543,
      "AL</w>": 7544,
      "क्लिक</w>": 7545,
      "sight</w>": 7546,
      "beginning</w>": 7547,
      "white</w>": 7548,
      "parents</w>": 7549,
      "mighty</w>": 7550,
      "directly</w>": 7551,
      "त्मा</w>": 7552,
      "North</w>": 7553,
      "Failed</w>": 7554,
      "note</w>": 7555,
      "ler</w>": 7556,
      "जिए</w>": 7557,
      "cele": 7558,
      "सदन</w>": 7559,
      "प्रसन्": 7560,
      "mal": 7561,
      "ology</w>": 7562,
      "treatment</w>": 7563,
      "कक्ष</w>": 7564,
      "ल्स</w>": 7565,
      "addres": 7566,
      "Tam": 7567,
      "getting</w>": 7568,
      "सकेगा</w>": 7569,
      "lakh</w>": 7570,
      "प्रोग्राम</w>": 7571,
      "generation</w>": 7572,
      "ire": 7573,
      "round</w>": 7574,
      "ख़</w>": 7575,
      "refu": 7576,
      "सुं": 7577,
      "filled</w>": 7578,
      "माबू": 7579,
      "मुर्": 7580,
      "mand": 7581,
      "steps</w>": 7582,
      "loan</w>": 7583,
      "बता</w>": 7584,
      "नेवाली</w>": 7585,
      "servants</w>": 7586,
      "रिकों</w>": 7587,
      "Evolution</w>": 7588,
      "यण</w>": 7589,
      "quite</w>": 7590,
      "nical</w>": 7591,
      "मानसिक</w>": 7592,
      "answer</w>": 7593,
      "खुशी</w>": 7594,
      "film</w>": 7595,
      "supported</w>": 7596,
      "existing</w>": 7597,
      "existence</w>": 7598,
      "आख़िर</w>": 7599,
      "सश": 7600,
      "exper": 7601,
      "ढ़ी</w>": 7602,
      "inten": 7603,
      "वातावरण</w>": 7604,
      "इबादत</w>": 7605,
      "वालो</w>": 7606,
      "सच</w>": 7607,
      "titude</w>": 7608,
      "wanted</w>": 7609,
      "arm</w>": 7610,
      "नियुक्त</w>": 7611,
      "hur": 7612,
      "copy</w>": 7613,
      "eal</w>": 7614,
      "mom": 7615,
      "stly</w>": 7616,
      "method</w>": 7617,
      "Many</w>": 7618,
      "प्प": 7619,
      "aught</w>": 7620,
      "शुरु": 7621,
      ",\"</w>": 7622,
      "करनेवाले</w>": 7623,
      "cli": 7624,
      "Chand": 7625,
      "philos": 7626,
      "सर्वा": 7627,
      "कदा": 7628,
      "सरा": 7629,
      ":-</w>": 7630,
      "Scheme</w>": 7631,
      "article</w>": 7632,
      "ून</w>": 7633,
      "देकर</w>": 7634,
      "agar</w>": 7635,
      "Therefore</w>": 7636,
      "cru": 7637,
      "ro</w>": 7638,
      "स्ना": 7639,
      "गवाह</w>": 7640,
      "अनुप्रयोग</w>": 7641,
      "महसूस</w>": 7642,
      "Gang": 7643,
      "सरण</w>": 7644,
      "object</w>": 7645,
      "निरंतर</w>": 7646,
      "जाएं</w>": 7647,
      "निम्न</w>": 7648,
      "Le": 7649,
      "स्मृति</w>": 7650,
      "Ob": 7651,
      "इत्या": 7652,
      "रहें</w>": 7653,
      "point": 7654,
      "location</w>": 7655,
      "encies</w>": 7656,
      "deep</w>": 7657,
      "पूर्वा": 7658,
      "जाग": 7659,
      "lie</w>": 7660,
      "Pharao": 7661,
      "AN</w>": 7662,
      "Goo": 7663,
      "पें": 7664,
      "la</w>": 7665,
      "ारण</w>": 7666,
      "लाव</w>": 7667,
      "पुट</w>": 7668,
      "Research</w>": 7669,
      "अद्य": 7670,
      "may": 7671,
      "dows</w>": 7672,
      "Punj": 7673,
      "Pharaoh</w>": 7674,
      "bac": 7675,
      "avo": 7676,
      "undred</w>": 7677,
      "citizens</w>": 7678,
      "एच": 7679,
      "iling</w>": 7680,
      "जनवरी</w>": 7681,
      "गठन</w>": 7682,
      "समर्थ</w>": 7683,
      "शीर्ष</w>": 7684,
      "scale</w>": 7685,
      "ees</w>": 7686,
      "eared</w>": 7687,
      "central</w>": 7688,
      "concerning</w>": 7689,
      "ताएं</w>": 7690,
      "systems</w>": 7691,
      "reading</w>": 7692,
      "uary</w>": 7693,
      "सप्ता": 7694,
      "साम्रा": 7695,
      "bene": 7696,
      "प्रेरित</w>": 7697,
      "Who": 7698,
      "यत्": 7699,
      "जिनकी</w>": 7700,
      "अन्तर्": 7701,
      "ancy</w>": 7702,
      "अवैध</w>": 7703,
      "मना": 7704,
      "रन</w>": 7705,
      "तौबा</w>": 7706,
      "¥</w>": 7707,
      "aring</w>": 7708,
      "पदार्थ</w>": 7709,
      "Ri": 7710,
      "Win": 7711,
      "saf": 7712,
      "Nov": 7713,
      "default</w>": 7714,
      "quar": 7715,
      "अवि": 7716,
      "ush</w>": 7717,
      "शून्य</w>": 7718,
      "शिक</w>": 7719,
      "connection</w>": 7720,
      "झुठलाया</w>": 7721,
      "सानी</w>": 7722,
      "कविता</w>": 7723,
      "simple</w>": 7724,
      "pass</w>": 7725,
      "मुक़": 7726,
      "produced</w>": 7727,
      "claim</w>": 7728,
      "changed</w>": 7729,
      "पार्टी</w>": 7730,
      "speech</w>": 7731,
      "कठोर</w>": 7732,
      "शकों</w>": 7733,
      "mentioned</w>": 7734,
      "ये": 7735,
      "दावा</w>": 7736,
      "खेती</w>": 7737,
      "verses</w>": 7738,
      "new": 7739,
      "certificate</w>": 7740,
      "US</w>": 7741,
      "cat": 7742,
      "¤¤</w>": 7743,
      "remin": 7744,
      "eption</w>": 7745,
      "Sal": 7746,
      "sin</w>": 7747,
      "wil": 7748,
      "].</w>": 7749,
      "ai": 7750,
      "presented</w>": 7751,
      "enditure</w>": 7752,
      "limited</w>": 7753,
      "Abra": 7754,
      "usually</w>": 7755,
      "अनुमो": 7756,
      "लेखन</w>": 7757,
      "agricultural</w>": 7758,
      "भाल</w>": 7759,
      "ख़ास</w>": 7760,
      "अस्ति": 7761,
      "फल": 7762,
      "asset</w>": 7763,
      "ज़ू": 7764,
      "23": 7765,
      "Bal": 7766,
      "वारों</w>": 7767,
      "तिथि</w>": 7768,
      "अंतर्राष्ट्रीय</w>": 7769,
      "स्वतंत्र</w>": 7770,
      "range</w>": 7771,
      "विदेश</w>": 7772,
      "मिले</w>": 7773,
      "ग्रस्त</w>": 7774,
      "obey</w>": 7775,
      "exerc": 7776,
      "शुभकामनाएं</w>": 7777,
      "hundred</w>": 7778,
      "नस्": 7779,
      "proper</w>": 7780,
      "पत्नी</w>": 7781,
      "सरल</w>": 7782,
      "1999</w>": 7783,
      "भरोसा</w>": 7784,
      "भाँ": 7785,
      "basic</w>": 7786,
      "ग्र</w>": 7787,
      "riage</w>": 7788,
      "commer": 7789,
      "स्वागत</w>": 7790,
      "इन्हें</w>": 7791,
      "मूल्यांकन</w>": 7792,
      "ृंख": 7793,
      "flic": 7794,
      "etings</w>": 7795,
      "instal": 7796,
      "ारिश</w>": 7797,
      "मान्": 7798,
      "पूर्ववर्ष</w>": 7799,
      "ब्रह्": 7800,
      "भय</w>": 7801,
      "deal</w>": 7802,
      "female</w>": 7803,
      "View</w>": 7804,
      "Today</w>": 7805,
      "Kal": 7806,
      "pha": 7807,
      "अक्सर</w>": 7808,
      "गुमरा": 7809,
      "नक": 7810,
      "pursu": 7811,
      "फेर</w>": 7812,
      "Project</w>": 7813,
      "बढ़कर</w>": 7814,
      "omb": 7815,
      "cover</w>": 7816,
      "पुराने</w>": 7817,
      "समस्याओं</w>": 7818,
      "Rel": 7819,
      "संपूर्ण</w>": 7820,
      "अन्त": 7821,
      "Off": 7822,
      "piec": 7823,
      "Islamic</w>": 7824,
      "heaven</w>": 7825,
      "learning</w>": 7826,
      "मुह": 7827,
      "बुद्धि</w>": 7828,
      "direction</w>": 7829,
      "hen": 7830,
      "थियों</w>": 7831,
      "दत्त</w>": 7832,
      "dule</w>": 7833,
      "ept": 7834,
      "परीक्षण</w>": 7835,
      "Emp": 7836,
      "उत्कृ": 7837,
      "meaning</w>": 7838,
      "Will</w>": 7839,
      "कितने</w>": 7840,
      "giveness</w>": 7841,
      "surance</w>": 7842,
      "यूरोप</w>": 7843,
      "fixed</w>": 7844,
      "मंच</w>": 7845,
      "running</w>": 7846,
      "मुक़ा": 7847,
      "चलो</w>": 7848,
      "चुनाव</w>": 7849,
      "भेजे</w>": 7850,
      "वेतन</w>": 7851,
      "Abraham</w>": 7852,
      "rac": 7853,
      "सुधार": 7854,
      "वाणि": 7855,
      "AND</w>": 7856,
      "parties</w>": 7857,
      "कार्रवाई</w>": 7858,
      "70</w>": 7859,
      "निहित</w>": 7860,
      "जंग": 7861,
      "ises</w>": 7862,
      "fathers</w>": 7863,
      "generally</w>": 7864,
      "Resurrection</w>": 7865,
      "PO": 7866,
      "bes</w>": 7867,
      "मिलती</w>": 7868,
      "thousand</w>": 7869,
      "परियोजनाओं</w>": 7870,
      "पारि": 7871,
      "racy</w>": 7872,
      "कार्यक्रमों</w>": 7873,
      "continued</w>": 7874,
      "notice</w>": 7875,
      "तिहासिक</w>": 7876,
      "चीत</w>": 7877,
      "उम्मीद</w>": 7878,
      "Rev": 7879,
      "कलन</w>": 7880,
      "emes</w>": 7881,
      "हवा</w>": 7882,
      "forces</w>": 7883,
      "पेज</w>": 7884,
      "awar": 7885,
      "पात्र</w>": 7886,
      "Fir": 7887,
      "Sim": 7888,
      "elled</w>": 7889,
      "बात": 7890,
      "scho": 7891,
      "ोल्यूशन</w>": 7892,
      "gies</w>": 7893,
      "thern</w>": 7894,
      "Europe</w>": 7895,
      "eam</w>": 7896,
      "del</w>": 7897,
      "January</w>": 7898,
      "oil</w>": 7899,
      "मिशन</w>": 7900,
      "worl": 7901,
      "दूध</w>": 7902,
      "मुला": 7903,
      "knew</w>": 7904,
      "enh": 7905,
      "संबो": 7906,
      "abad</w>": 7907,
      "regarding</w>": 7908,
      "अफ्रीका</w>": 7909,
      "प्रसन्नता</w>": 7910,
      "सुझा": 7911,
      "faces</w>": 7912,
      "beauti": 7913,
      "यहू": 7914,
      "excell": 7915,
      "आयोजन</w>": 7916,
      "tribu": 7917,
      "अरब</w>": 7918,
      "किल</w>": 7919,
      "लगाने</w>": 7920,
      "कराने</w>": 7921,
      "nership</w>": 7922,
      "शख़्श</w>": 7923,
      "Jam": 7924,
      "मानो</w>": 7925,
      "हल</w>": 7926,
      "मूल": 7927,
      "धक</w>": 7928,
      "भलाई</w>": 7929,
      "aka</w>": 7930,
      "December</w>": 7931,
      "Corpor": 7932,
      "ैर</w>": 7933,
      "कितनी</w>": 7934,
      "plants</w>": 7935,
      "former</w>": 7936,
      "App": 7937,
      "bad</w>": 7938,
      "she": 7939,
      "resh</w>": 7940,
      "तरी</w>": 7941,
      "पर्यटन</w>": 7942,
      "Kashm": 7943,
      "ल्ला</w>": 7944,
      "responsibility</w>": 7945,
      "ero": 7946,
      "deal": 7947,
      "सिद्धांत</w>": 7948,
      "ख़र्च</w>": 7949,
      "trem": 7950,
      "URL</w>": 7951,
      "Gi": 7952,
      "खाली</w>": 7953,
      "ological</w>": 7954,
      "liber": 7955,
      "associated</w>": 7956,
      "mary</w>": 7957,
      "लिख</w>": 7958,
      "addition</w>": 7959,
      "2011</w>": 7960,
      "परिणाम": 7961,
      "esh</w>": 7962,
      "doc": 7963,
      "remove</w>": 7964,
      "शिकायत</w>": 7965,
      "निगम</w>": 7966,
      "LE": 7967,
      "destroyed</w>": 7968,
      "उपाय</w>": 7969,
      "top": 7970,
      "वर्ण": 7971,
      "statement</w>": 7972,
      "elop</w>": 7973,
      "04</w>": 7974,
      "ams</w>": 7975,
      "connected</w>": 7976,
      "गंभीर</w>": 7977,
      "बारा</w>": 7978,
      "यि": 7979,
      "वट</w>": 7980,
      "स्व</w>": 7981,
      "kin": 7982,
      "stood</w>": 7983,
      "display</w>": 7984,
      "अभियान</w>": 7985,
      "वृत्त</w>": 7986,
      "rent</w>": 7987,
      "प्रार्थ": 7988,
      "करार</w>": 7989,
      "उत्तम</w>": 7990,
      "eling</w>": 7991,
      "ज़ी": 7992,
      "जायेगा</w>": 7993,
      "आयुक्त</w>": 7994,
      "endra</w>": 7995,
      "tried</w>": 7996,
      "practice</w>": 7997,
      "सहेजें</w>": 7998,
      "आतंकवाद</w>": 7999,
      "Scrip": 8000,
      "पक्": 8001,
      "सत्र</w>": 8002,
      "हराम</w>": 8003,
      "won": 8004,
      "नवान्वे": 8005,
      "CD</w>": 8006,
      "Ter": 8007,
      "ton</w>": 8008,
      "Accor": 8009,
      "इंजी": 8010,
      "मुख्य": 8011,
      "ideas</w>": 8012,
      "improv": 8013,
      "बन्द</w>": 8014,
      "गणराज्य</w>": 8015,
      "बजे</w>": 8016,
      "suffer": 8017,
      "carry</w>": 8018,
      "केन्द्र": 8019,
      "lines</w>": 8020,
      "खूब</w>": 8021,
      "तुर्": 8022,
      "बरी</w>": 8023,
      "ल्ड</w>": 8024,
      "तकली": 8025,
      "झूठ</w>": 8026,
      "नेतृत्व</w>": 8027,
      "इत्यादि</w>": 8028,
      "ज्य": 8029,
      "asc": 8030,
      "ento": 8031,
      "immediately</w>": 8032,
      "tober</w>": 8033,
      "दस्तावेज</w>": 8034,
      "Lea": 8035,
      "SH": 8036,
      "Te": 8037,
      "pul": 8038,
      "इरा": 8039,
      "ज़ुल्म</w>": 8040,
      "षों</w>": 8041,
      "relevant</w>": 8042,
      "भाँति</w>": 8043,
      "pon": 8044,
      "प्रच": 8045,
      "मती</w>": 8046,
      "appropri": 8047,
      "oundation</w>": 8048,
      "Supreme</w>": 8049,
      "successful</w>": 8050,
      "estic</w>": 8051,
      "grant</w>": 8052,
      "हॉ": 8053,
      "उप</w>": 8054,
      "insec": 8055,
      "होनी</w>": 8056,
      "units</w>": 8057,
      "oured</w>": 8058,
      "निशानी</w>": 8059,
      "संस्थाओं</w>": 8060,
      "Legis": 8061,
      "spend</w>": 8062,
      "aid</w>": 8063,
      "tis</w>": 8064,
      "animals</w>": 8065,
      "२००": 8066,
      "अनुसरण</w>": 8067,
      "medic": 8068,
      "समाचार</w>": 8069,
      "job</w>": 8070,
      "AR</w>": 8071,
      "lose</w>": 8072,
      "कृत": 8073,
      "porary</w>": 8074,
      "presence</w>": 8075,
      "htm</w>": 8076,
      "kh": 8077,
      "आइ": 8078,
      "धिकार</w>": 8079,
      "बंधों</w>": 8080,
      "Add": 8081,
      "wishes</w>": 8082,
      "ट्रो": 8083,
      "UT": 8084,
      "अनुवाद</w>": 8085,
      "faith": 8086,
      "पेट</w>": 8087,
      "syn": 8088,
      "अंतरण</w>": 8089,
      "पवि": 8090,
      "disci": 8091,
      "सामान्य": 8092,
      "Mal": 8093,
      "किरा": 8094,
      "संग्र": 8095,
      "painful</w>": 8096,
      "Ku": 8097,
      "session</w>": 8098,
      "सुन</w>": 8099,
      "lege</w>": 8100,
      "Bar": 8101,
      "ताव": 8102,
      "बुनिया": 8103,
      "विद्युत</w>": 8104,
      "ँव</w>": 8105,
      "जातियों</w>": 8106,
      "please</w>": 8107,
      "Only</w>": 8108,
      "Ass": 8109,
      "ming</w>": 8110,
      "strate</w>": 8111,
      "एवोल्यूशन</w>": 8112,
      "32</w>": 8113,
      "विवे": 8114,
      "सें": 8115,
      "बेटे</w>": 8116,
      "Yet</w>": 8117,
      "construction</w>": 8118,
      "crimin": 8119,
      "October</w>": 8120,
      "late</w>": 8121,
      "गर": 8122,
      "Provided</w>": 8123,
      "step</w>": 8124,
      "stances</w>": 8125,
      "deri": 8126,
      "companies</w>": 8127,
      "चना</w>": 8128,
      "टिक</w>": 8129,
      "cities</w>": 8130,
      "उपचार</w>": 8131,
      "अस्तित्व</w>": 8132,
      "purcha": 8133,
      "looking</w>": 8134,
      "banks</w>": 8135,
      "spiritual</w>": 8136,
      "bla": 8137,
      "परहे": 8138,
      "निरा": 8139,
      "Sig": 8140,
      "नाइ": 8141,
      "echan": 8142,
      "ईमानदारों</w>": 8143,
      "umbai</w>": 8144,
      "कल्याण</w>": 8145,
      "icro": 8146,
      "हिंदू</w>": 8147,
      "types</w>": 8148,
      "साधन</w>": 8149,
      "मिन</w>": 8150,
      "जोड़</w>": 8151,
      "American</w>": 8152,
      "ढूं": 8153,
      "आम": 8154,
      "labor": 8155,
      "बनाते</w>": 8156,
      "opportunities</w>": 8157,
      "बातचीत</w>": 8158,
      "alty</w>": 8159,
      "findia</w>": 8160,
      "आस्ति</w>": 8161,
      "Em": 8162,
      "alist</w>": 8163,
      "अभिलेख</w>": 8164,
      "anyone</w>": 8165,
      "therwise</w>": 8166,
      "conven": 8167,
      "मुना": 8168,
      "degre": 8169,
      "बढ़ा</w>": 8170,
      "मस्": 8171,
      "पहुँचा": 8172,
      "famous</w>": 8173,
      "ंस": 8174,
      "मानक</w>": 8175,
      "स्क्रीन</w>": 8176,
      "solu": 8177,
      "ट्यू": 8178,
      "poetry</w>": 8179,
      "presidento": 8180,
      "लिब</w>": 8181,
      "समे": 8182,
      "grace</w>": 8183,
      "directory</w>": 8184,
      "software</w>": 8185,
      "dens</w>": 8186,
      "presidentofindia</w>": 8187,
      "Hy": 8188,
      "रास्ता</w>": 8189,
      "imed</w>": 8190,
      "feet</w>": 8191,
      "sle": 8192,
      "ईं</w>": 8193,
      "मशी": 8194,
      "दिना": 8195,
      "जून</w>": 8196,
      "yan</w>": 8197,
      "til": 8198,
      "अंतर</w>": 8199,
      "revelations</w>": 8200,
      "06</w>": 8201,
      "potential</w>": 8202,
      "गू": 8203,
      "गंगा</w>": 8204,
      "¤</w>": 8205,
      "विद्यार्थियों</w>": 8206,
      "forgiveness</w>": 8207,
      "lot": 8208,
      "medical</w>": 8209,
      "वेक्षण</w>": 8210,
      "बिक्री</w>": 8211,
      "Explanation</w>": 8212,
      "घाटन</w>": 8213,
      "ऐतिहासिक</w>": 8214,
      "पड़ी</w>": 8215,
      "स्त्रियों</w>": 8216,
      "particularly</w>": 8217,
      "base</w>": 8218,
      "डरते</w>": 8219,
      "नुसार</w>": 8220,
      "link</w>": 8221,
      "आदर्श</w>": 8222,
      "न्वित</w>": 8223,
      "isible</w>": 8224,
      "पाकिस्तान</w>": 8225,
      "लेखा": 8226,
      "met</w>": 8227,
      "म्मद</w>": 8228,
      "ज़्या": 8229,
      "industries</w>": 8230,
      "आध्या": 8231,
      "build</w>": 8232,
      "includes</w>": 8233,
      "occup": 8234,
      "November</w>": 8235,
      "ML</w>": 8236,
      "ods</w>": 8237,
      "कें</w>": 8238,
      "पसन्": 8239,
      "बनाएँ</w>": 8240,
      "ims</w>": 8241,
      "गुप्त</w>": 8242,
      "sides</w>": 8243,
      "कर्मचारी</w>": 8244,
      "workers</w>": 8245,
      "numbers</w>": 8246,
      "आन</w>": 8247,
      "recomm": 8248,
      "संगण": 8249,
      "पंचांग</w>": 8250,
      "ME": 8251,
      "allow</w>": 8252,
      "पूजा</w>": 8253,
      "कद": 8254,
      "खो</w>": 8255,
      "learn</w>": 8256,
      "Loc": 8257,
      "खंड": 8258,
      "घे": 8259,
      "max": 8260,
      "ज़ालिम</w>": 8261,
      "आयतें</w>": 8262,
      "कौशल</w>": 8263,
      "contains</w>": 8264,
      "मानित</w>": 8265,
      "ace": 8266,
      "दिख": 8267,
      "अत्यधिक</w>": 8268,
      "measure</w>": 8269,
      "scientific</w>": 8270,
      "सप्ताह</w>": 8271,
      "NO": 8272,
      "चर": 8273,
      "Which</w>": 8274,
      "संबंधों</w>": 8275,
      "बुनियादी</w>": 8276,
      "निर्देशिका</w>": 8277,
      "आध्यात्": 8278,
      "तापूर्वक</w>": 8279,
      "offer</w>": 8280,
      "मुसलमान</w>": 8281,
      "password</w>": 8282,
      "यमान</w>": 8283,
      "शनल</w>": 8284,
      "ठिकाना</w>": 8285,
      "बैंकों</w>": 8286,
      "अदा": 8287,
      "वाय</w>": 8288,
      "assistance</w>": 8289,
      "worshi": 8290,
      "content</w>": 8291,
      "Up": 8292,
      "traditional</w>": 8293,
      "बदलें</w>": 8294,
      "legis": 8295,
      "judge</w>": 8296,
      "talk</w>": 8297,
      "गीत</w>": 8298,
      "त्रिका</w>": 8299,
      "26": 8300,
      "नाट": 8301,
      "ष्क</w>": 8302,
      "कीमत</w>": 8303,
      "कृष्ण</w>": 8304,
      "किसान</w>": 8305,
      "प्राथमि": 8306,
      "jun": 8307,
      "द्वार</w>": 8308,
      "कॉन्": 8309,
      "ggle</w>": 8310,
      "Pakistan</w>": 8311,
      "ब्रे": 8312,
      "laid</w>": 8313,
      "ingdom</w>": 8314,
      "स्थानों</w>": 8315,
      "भगवान</w>": 8316,
      "गुमराही</w>": 8317,
      "Ay": 8318,
      "वादा</w>": 8319,
      "¤¯</w>": 8320,
      "इतने</w>": 8321,
      "चक</w>": 8322,
      "बाँ": 8323,
      "located</w>": 8324,
      "Do": 8325,
      "वार्": 8326,
      "खुले</w>": 8327,
      "सोच</w>": 8328,
      "risti": 8329,
      "sufficient</w>": 8330,
      "adise</w>": 8331,
      "attemp": 8332,
      "pping</w>": 8333,
      "divided</w>": 8334,
      "Cap": 8335,
      "देखभाल</w>": 8336,
      "मोड</w>": 8337,
      "thro": 8338,
      "पूज्य</w>": 8339,
      "boy</w>": 8340,
      "rise</w>": 8341,
      "इजरायल</w>": 8342,
      "perhaps</w>": 8343,
      "मामला</w>": 8344,
      "मूर्ति</w>": 8345,
      "bha": 8346,
      "gods</w>": 8347,
      "जात</w>": 8348,
      "त्म</w>": 8349,
      "ठे</w>": 8350,
      "granted</w>": 8351,
      "तीसर": 8352,
      "Truth</w>": 8353,
      "विध</w>": 8354,
      "ख्याल</w>": 8355,
      "जमा": 8356,
      "विदा</w>": 8357,
      "era</w>": 8358,
      "iry</w>": 8359,
      "मीडिया</w>": 8360,
      "पोर्": 8361,
      "कानूनी</w>": 8362,
      "व्यवसाय</w>": 8363,
      "घरे": 8364,
      "कालिक</w>": 8365,
      "regular</w>": 8366,
      "सामर्थ": 8367,
      "णिक</w>": 8368,
      "कां": 8369,
      "भागों</w>": 8370,
      "विषयों</w>": 8371,
      "Ba": 8372,
      "धर्": 8373,
      "हाद</w>": 8374,
      "autom": 8375,
      "Message</w>": 8376,
      "शीर्षक</w>": 8377,
      "उद": 8378,
      "पट्": 8379,
      "distinc": 8380,
      "Sm": 8381,
      "don": 8382,
      "2009</w>": 8383,
      "consider</w>": 8384,
      "थोड़ा</w>": 8385,
      "ules</w>": 8386,
      "क़ुर": 8387,
      "uk": 8388,
      "इकट्": 8389,
      "त्रा": 8390,
      "imag": 8391,
      "da</w>": 8392,
      "विवाद</w>": 8393,
      "NAME</w>": 8394,
      "विरा": 8395,
      "सिफ": 8396,
      "fair</w>": 8397,
      "edure</w>": 8398,
      "कॉल</w>": 8399,
      "accordance</w>": 8400,
      "cou": 8401,
      "Every</w>": 8402,
      "iv</w>": 8403,
      "करा</w>": 8404,
      "देन</w>": 8405,
      "Proc": 8406,
      "format</w>": 8407,
      "गृह</w>": 8408,
      "cutta</w>": 8409,
      "Bang": 8410,
      "Search</w>": 8411,
      "महल</w>": 8412,
      "ऑन": 8413,
      "करीब</w>": 8414,
      "vely</w>": 8415,
      "2004</w>": 8416,
      "जुड़े</w>": 8417,
      "collection</w>": 8418,
      "contribution</w>": 8419,
      "canc": 8420,
      "मिल": 8421,
      "वर्ण</w>": 8422,
      "code</w>": 8423,
      "2003</w>": 8424,
      "chem": 8425,
      "इंजीनिय": 8426,
      "तथा": 8427,
      "प्रतिनिधि": 8428,
      "हालॉ": 8429,
      "Sept": 8430,
      "पुस्ति": 8431,
      "Chair": 8432,
      "Governor</w>": 8433,
      "summ": 8434,
      "फ़ैसला</w>": 8435,
      "सुबह</w>": 8436,
      "police</w>": 8437,
      "marks</w>": 8438,
      "essi": 8439,
      "कहता</w>": 8440,
      "agriculture</w>": 8441,
      "Ker": 8442,
      "ions</w>": 8443,
      "सला": 8444,
      "gust</w>": 8445,
      "expenditure</w>": 8446,
      "ength</w>": 8447,
      "सॉफ्": 8448,
      "paper</w>": 8449,
      "relation</w>": 8450,
      "विचार": 8451,
      "जाँच</w>": 8452,
      "मौसम</w>": 8453,
      "popular</w>": 8454,
      "Calcutta</w>": 8455,
      "लाओ</w>": 8456,
      "hours</w>": 8457,
      "Christi": 8458,
      "प्रकाश": 8459,
      "benefits</w>": 8460,
      "अमरी": 8461,
      "24": 8462,
      "दूसरों</w>": 8463,
      "philosoph": 8464,
      "September</w>": 8465,
      "June</w>": 8466,
      "हजार</w>": 8467,
      "ids</w>": 8468,
      "moon</w>": 8469,
      "तीव": 8470,
      "ौर</w>": 8471,
      "lative</w>": 8472,
      "develop</w>": 8473,
      "memory</w>": 8474,
      "centre</w>": 8475,
      "challeng": 8476,
      "ectively</w>": 8477,
      "announ": 8478,
      "Al</w>": 8479,
      "स्ट्रे": 8480,
      "leading</w>": 8481,
      "लगातार</w>": 8482,
      "apost": 8483,
      "cipal</w>": 8484,
      "violence</w>": 8485,
      "orders</w>": 8486,
      "पथ": 8487,
      "लेगी</w>": 8488,
      "compla": 8489,
      "पोषण</w>": 8490,
      "require": 8491,
      "SS": 8492,
      "इलेक्": 8493,
      "गवाही</w>": 8494,
      "नष्ट</w>": 8495,
      "मण</w>": 8496,
      "icity</w>": 8497,
      "पूर्वी</w>": 8498,
      "पढ़ने</w>": 8499,
      "आजा": 8500,
      "घरेलू</w>": 8501,
      "gate</w>": 8502,
      "संचालन</w>": 8503,
      "पुत्र</w>": 8504,
      "draw</w>": 8505,
      "मेहरबान</w>": 8506,
      "रै": 8507,
      "संकल्प</w>": 8508,
      "गढ़</w>": 8509,
      "ony</w>": 8510,
      "ilit": 8511,
      "sud": 8512,
      "अका": 8513,
      "Folder</w>": 8514,
      "ंति": 8515,
      "म्</w>": 8516,
      "versities</w>": 8517,
      "कियों</w>": 8518,
      "relation": 8519,
      "सुना</w>": 8520,
      "सीधा</w>": 8521,
      "ध्वनि</w>": 8522,
      "administration</w>": 8523,
      "खद</w>": 8524,
      "cred": 8525,
      "assets</w>": 8526,
      "”.</w>": 8527,
      "लेज</w>": 8528,
      "सवाल</w>": 8529,
      "sacri": 8530,
      "तुर": 8531,
      "Soci": 8532,
      "promised</w>": 8533,
      "laws</w>": 8534,
      "Assem": 8535,
      "सिवाय</w>": 8536,
      "essential</w>": 8537,
      "पंक्ति</w>": 8538,
      "witn": 8539,
      "हालॉकि</w>": 8540,
      "expected</w>": 8541,
      "circum": 8542,
      "Organ": 8543,
      "बुराई</w>": 8544,
      "पसन्द</w>": 8545,
      "bat": 8546,
      "ort": 8547,
      "techno": 8548,
      "बनने</w>": 8549,
      "सेवाएं</w>": 8550,
      "Kashmir</w>": 8551,
      "aug": 8552,
      "पहल</w>": 8553,
      "वरों</w>": 8554,
      "nations</w>": 8555,
      "क्रय</w>": 8556,
      "रस</w>": 8557,
      "asks</w>": 8558,
      "शेयर</w>": 8559,
      "जोखि": 8560,
      "Prin": 8561,
      "पकड़</w>": 8562,
      "expression</w>": 8563,
      "न्यूनतम</w>": 8564,
      "अद्यतन</w>": 8565,
      "Fa": 8566,
      "ert</w>": 8567,
      "निकों</w>": 8568,
      "आंतरिक</w>": 8569,
      "सभ": 8570,
      "ख़ुद</w>": 8571,
      "tified</w>": 8572,
      "oom</w>": 8573,
      "hosp": 8574,
      "संसाधनों</w>": 8575,
      "mountains</w>": 8576,
      "Last</w>": 8577,
      "Mumbai</w>": 8578,
      "सका": 8579,
      "मुंब": 8580,
      "मई</w>": 8581,
      "मछ": 8582,
      "villages</w>": 8583,
      "Director</w>": 8584,
      "अर्थात</w>": 8585,
      "अपराध</w>": 8586,
      "प्रदू": 8587,
      "चि</w>": 8588,
      "सौ</w>": 8589,
      "¥</w>": 8590,
      "टॉ": 8591,
      "मास</w>": 8592,
      "संभावना</w>": 8593,
      "tionary</w>": 8594,
      "सहकारी</w>": 8595,
      "तमाम</w>": 8596,
      "seful</w>": 8597,
      "भाषाओं</w>": 8598,
      "प्रेत</w>": 8599,
      "घात</w>": 8600,
      "chief</w>": 8601,
      "balance</w>": 8602,
      "named</w>": 8603,
      "प्रोत्साहन</w>": 8604,
      "Its</w>": 8605,
      "घन</w>": 8606,
      "लाद</w>": 8607,
      "रिंग</w>": 8608,
      "separate</w>": 8609,
      "क्षता</w>": 8610,
      "measures</w>": 8611,
      "insp": 8612,
      "ications</w>": 8613,
      "opened</w>": 8614,
      "Create</w>": 8615,
      "प्रायः</w>": 8616,
      "King</w>": 8617,
      "नबी</w>": 8618,
      "वचन</w>": 8619,
      "सभा": 8620,
      "समस्त</w>": 8621,
      "work": 8622,
      "gradu": 8623,
      "चीज</w>": 8624,
      "denied</w>": 8625,
      "Some": 8626,
      "product</w>": 8627,
      "operative</w>": 8628,
      "मल": 8629,
      "वेद</w>": 8630,
      "Children</w>": 8631,
      "तता</w>": 8632,
      "ought</w>": 8633,
      "Thou</w>": 8634,
      "वेब</w>": 8635,
      "attention</w>": 8636,
      "Messengers</w>": 8637,
      "inside</w>": 8638,
      "जाकर</w>": 8639,
      "मिटाएँ</w>": 8640,
      "opinion</w>": 8641,
      "चेतना</w>": 8642,
      "System</w>": 8643,
      "Management</w>": 8644,
      "विधे": 8645,
      "मुंबई</w>": 8646,
      "सरों</w>": 8647,
      "टरी</w>": 8648,
      "eligi": 8649,
      "harm</w>": 8650,
      "अर्थात्</w>": 8651,
      "चय</w>": 8652,
      "विन्यास</w>": 8653,
      "नागरिकों</w>": 8654,
      "महत्त्वपूर्ण</w>": 8655,
      "गुजरात</w>": 8656,
      "माबूद</w>": 8657,
      "Pen": 8658,
      "वर्ड</w>": 8659,
      "culp": 8660,
      "रद्द</w>": 8661,
      "ऑनलाइन</w>": 8662,
      "वक</w>": 8663,
      "वाद्य</w>": 8664,
      "Tamil</w>": 8665,
      "rap": 8666,
      "perc": 8667,
      "गणना</w>": 8668,
      "तभी</w>": 8669,
      "enth</w>": 8670,
      "timate</w>": 8671,
      "उम्र</w>": 8672,
      "uals</w>": 8673,
      "आया": 8674,
      "रास्ते</w>": 8675,
      "Maj": 8676,
      "Forgiving</w>": 8677,
      "प्रार्थना</w>": 8678,
      "deemed</w>": 8679,
      "बल": 8680,
      "polic": 8681,
      "प्रभ": 8682,
      "sins</w>": 8683,
      "zing</w>": 8684,
      "देखकर</w>": 8685,
      "टें</w>": 8686,
      "कर्ताओं</w>": 8687,
      "ंजी": 8688,
      "गरी": 8689,
      "वासियों</w>": 8690,
      "कुमार</w>": 8691,
      "cooperation</w>": 8692,
      "Bab": 8693,
      "2020</w>": 8694,
      "largest</w>": 8695,
      "appear</w>": 8696,
      "भागीदारी</w>": 8697,
      "ulate</w>": 8698,
      "ulated</w>": 8699,
      "tices</w>": 8700,
      "twenty</w>": 8701,
      "sustain": 8702,
      "Dra": 8703,
      "पास": 8704,
      "हिंदु": 8705,
      "हट</w>": 8706,
      "टान</w>": 8707,
      "यूसु": 8708,
      "पाठ्य": 8709,
      "प्रयोजन</w>": 8710,
      "तुझे</w>": 8711,
      "best": 8712,
      "highest</w>": 8713,
      "drink</w>": 8714,
      "ply</w>": 8715,
      "Other</w>": 8716,
      "eye</w>": 8717,
      "youth</w>": 8718,
      "ung</w>": 8719,
      "लोकन</w>": 8720,
      "रुपए</w>": 8721,
      "supply</w>": 8722,
      "beautiful</w>": 8723,
      "stay</w>": 8724,
      "न्स</w>": 8725,
      "हिंदी</w>": 8726,
      "लुता</w>": 8727,
      "gam": 8728,
      "rative</w>": 8729,
      "kness</w>": 8730,
      "हिक</w>": 8731,
      "permission</w>": 8732,
      "प्ला": 8733,
      "निर्वाचन</w>": 8734,
      "Bl": 8735,
      "Ph": 8736,
      "लड़के</w>": 8737,
      "घोषित</w>": 8738,
      "59</w>": 8739,
      "percent</w>": 8740,
      "टियों</w>": 8741,
      "बोल</w>": 8742,
      "plication</w>": 8743,
      "completed</w>": 8744,
      "advant": 8745,
      "deliver": 8746,
      "male</w>": 8747,
      "तट</w>": 8748,
      "विधा": 8749,
      "कारक</w>": 8750,
      "शुरुआत</w>": 8751,
      "Hea": 8752,
      "jur": 8753,
      "त्या</w>": 8754,
      "dic</w>": 8755,
      "saved</w>": 8756,
      "रजि": 8757,
      "else</w>": 8758,
      "मिश्र": 8759,
      "Europe": 8760,
      "सचिव</w>": 8761,
      "परहेज़": 8762,
      "bab": 8763,
      "डाटा</w>": 8764,
      "धू": 8765,
      "aci": 8766,
      "schol": 8767,
      "officers</w>": 8768,
      "चलने</w>": 8769,
      "festiv": 8770,
      "ran</w>": 8771,
      "आये</w>": 8772,
      "शास्त्र</w>": 8773,
      "patter": 8774,
      "फ़ार</w>": 8775,
      "ल्ट</w>": 8776,
      "मौत</w>": 8777,
      "खुली</w>": 8778,
      "partners</w>": 8779,
      "इकाई</w>": 8780,
      "Well</w>": 8781,
      "आपूर्ति</w>": 8782,
      "सूर्य</w>": 8783,
      "2010</w>": 8784,
      "decla": 8785,
      "आग्रह</w>": 8786,
      "town</w>": 8787,
      "Gandhi": 8788,
      "repe": 8789,
      "लिपि</w>": 8790,
      "corrup": 8791,
      "में": 8792,
      "ancing</w>": 8793,
      "protection</w>": 8794,
      "pointment</w>": 8795,
      "clim": 8796,
      "शाखा</w>": 8797,
      "CT": 8798,
      "रूप": 8799,
      "जाएंगे</w>": 8800,
      "तरीका</w>": 8801,
      "ईल</w>": 8802,
      "unjust</w>": 8803,
      "sha</w>": 8804,
      "wills</w>": 8805,
      "someone</w>": 8806,
      "1956</w>": 8807,
      "उद्घाटन</w>": 8808,
      "calendar</w>": 8809,
      "break</w>": 8810,
      "घू": 8811,
      "desig": 8812,
      "द्वितीय</w>": 8813,
      "हाइ": 8814,
      "Satan</w>": 8815,
      "forgive</w>": 8816,
      "ृंखला</w>": 8817,
      "academ": 8818,
      "Go</w>": 8819,
      "Pu": 8820,
      "chan": 8821,
      "अभिप्रेत</w>": 8822,
      "पूछा</w>": 8823,
      "longer</w>": 8824,
      "ol</w>": 8825,
      "ecture</w>": 8826,
      "दयावान</w>": 8827,
      "जू</w>": 8828,
      "chastisement</w>": 8829,
      "Typ": 8830,
      "Here</w>": 8831,
      "कथा</w>": 8832,
      "gement</w>": 8833,
      "कोवि": 8834,
      "मोबा": 8835,
      "Ur": 8836,
      "extent</w>": 8837,
      "enemy</w>": 8838,
      "mechan": 8839,
      "अम्": 8840,
      "performance</w>": 8841,
      "otherwise</w>": 8842,
      "कन्": 8843,
      "परिस्थितियों</w>": 8844,
      "न्यायाधी": 8845,
      "significant</w>": 8846,
      "ulty</w>": 8847,
      "shows</w>": 8848,
      "celebr": 8849,
      "pter</w>": 8850,
      "नेहर": 8851,
      "pleasure</w>": 8852,
      "औष": 8853,
      "हिस्से</w>": 8854,
      "वंश</w>": 8855,
      "green</w>": 8856,
      "Maha": 8857,
      "documents</w>": 8858,
      "Google</w>": 8859,
      "वली</w>": 8860,
      "हस्त": 8861,
      "deep": 8862,
      "taste</w>": 8863,
      "conduct</w>": 8864,
      "Fore": 8865,
      "black</w>": 8866,
      "ग़ालिब</w>": 8867,
      "विजय</w>": 8868,
      "ition</w>": 8869,
      "लोगो</w>": 8870,
      "दिखा</w>": 8871,
      "effort</w>": 8872,
      "अस्प": 8873,
      "बढ": 8874,
      "लक्षण</w>": 8875,
      "down": 8876,
      "prosper": 8877,
      "्यु": 8878,
      "funds</w>": 8879,
      "Sup": 8880,
      "pas": 8881,
      "बाबत</w>": 8882,
      "final</w>": 8883,
      "मल</w>": 8884,
      "बोझ</w>": 8885,
      "आध्यात्मिक</w>": 8886,
      "entered</w>": 8887,
      "भूल</w>": 8888,
      "समुद्र": 8889,
      "गुज़र</w>": 8890,
      "intell": 8891,
      "ल्टर</w>": 8892,
      "दुआ</w>": 8893,
      "title</w>": 8894,
      "rupe": 8895,
      "उपयोगी</w>": 8896,
      "प्राथमिक</w>": 8897,
      "implementation</w>": 8898,
      "आग": 8899,
      "शर": 8900,
      "los": 8901,
      "ंगें</w>": 8902,
      "सिक्": 8903,
      "बदलाव</w>": 8904,
      "severe</w>": 8905,
      "समर्थित</w>": 8906,
      "किनारे</w>": 8907,
      "क्ट</w>": 8908,
      "करणों</w>": 8909,
      "ava</w>": 8910,
      "Gujarat</w>": 8911,
      "पुस्तिका</w>": 8912,
      "बौ": 8913,
      "दयालुता</w>": 8914,
      "Krishna</w>": 8915,
      "आसानी</w>": 8916,
      "तियाँ</w>": 8917,
      "दायी</w>": 8918,
      "खिलाफ</w>": 8919,
      "included</w>": 8920,
      "eld</w>": 8921,
      "dedic": 8922,
      "etic</w>": 8923,
      "अत</w>": 8924,
      "turing</w>": 8925,
      "हिंसा</w>": 8926,
      "boun": 8927,
      "ty": 8928,
      "ught</w>": 8929,
      "शाही</w>": 8930,
      "Under</w>": 8931,
      "tled</w>": 8932,
      "soli": 8933,
      "favour</w>": 8934,
      "संवेद": 8935,
      "Agric": 8936,
      "Na": 8937,
      "Right</w>": 8938,
      "फसल</w>": 8939,
      "media</w>": 8940,
      "पैग़म्ब": 8941,
      "Tw": 8942,
      "middle</w>": 8943,
      "मधु": 8944,
      "मस्ति": 8945,
      "वैसे</w>": 8946,
      "लिप": 8947,
      "विरोधी</w>": 8948,
      "Ci": 8949,
      "ini</w>": 8950,
      "items</w>": 8951,
      "appreci": 8952,
      "औरतों</w>": 8953,
      "ज़रुर</w>": 8954,
      "kan": 8955,
      "sy</w>": 8956,
      "उत्पादों</w>": 8957,
      "महिम</w>": 8958,
      "अधिकारों</w>": 8959,
      "तेज</w>": 8960,
      "wait</w>": 8961,
      "appropriate</w>": 8962,
      "वर्धन</w>": 8963,
      "शिल्": 8964,
      "जॉ": 8965,
      "स्पे": 8966,
      "leas": 8967,
      "जितना</w>": 8968,
      "ड़ते</w>": 8969,
      "देखता</w>": 8970,
      "अब्": 8971,
      "जाल</w>": 8972,
      "species</w>": 8973,
      "नूह</w>": 8974,
      "()</w>": 8975,
      "शाला</w>": 8976,
      "पारित</w>": 8977,
      "vention</w>": 8978,
      "पहुंचा": 8979,
      "काग": 8980,
      "सुना": 8981,
      "tees</w>": 8982,
      "furn": 8983,
      "ourism</w>": 8984,
      "griev": 8985,
      "साई</w>": 8986,
      "secu": 8987,
      "Tax</w>": 8988,
      "प्रशंसा</w>": 8989,
      "टिप्प": 8990,
      "aches</w>": 8991,
      "कलक": 8992,
      "वहीं</w>": 8993,
      "disc</w>": 8994,
      "फैसला</w>": 8995,
      "पक्षीय</w>": 8996,
      "grow</w>": 8997,
      "alter": 8998,
      "connec": 8999,
      "उत्तरा": 9000,
      "विश्लेषण</w>": 9001,
      "ह्य</w>": 9002,
      "teen</w>": 9003,
      "utes</w>": 9004,
      "advice</w>": 9005,
      "मुक़ाबले</w>": 9006,
      "Sri</w>": 9007,
      "tradition</w>": 9008,
[...]
